{
  "version": "1.0",
  "truncation": null,
  "padding": null,
  "added_tokens": [
    {
      "id": 0,
      "content": "[UNK]",
      "single_word": false,
      "lstrip": false,
      "rstrip": false,
      "normalized": false,
      "special": true
    },
    {
      "id": 1,
      "content": "[PAD]",
      "single_word": false,
      "lstrip": false,
      "rstrip": false,
      "normalized": false,
      "special": true
    },
    {
      "id": 2,
      "content": "<|user|>",
      "single_word": false,
      "lstrip": false,
      "rstrip": false,
      "normalized": false,
      "special": true
    },
    {
      "id": 3,
      "content": "<|assistant|>",
      "single_word": false,
      "lstrip": false,
      "rstrip": false,
      "normalized": false,
      "special": true
    },
    {
      "id": 4,
      "content": "<|end|>",
      "single_word": false,
      "lstrip": false,
      "rstrip": false,
      "normalized": false,
      "special": true
    }
  ],
  "normalizer": null,
  "pre_tokenizer": {
    "type": "Whitespace"
  },
  "post_processor": null,
  "decoder": null,
  "model": {
    "type": "BPE",
    "dropout": null,
    "unk_token": "[UNK]",
    "continuing_subword_prefix": null,
    "end_of_word_suffix": null,
    "fuse_unk": false,
    "byte_fallback": false,
    "ignore_merges": false,
    "vocab": {
      "[UNK]": 0,
      "[PAD]": 1,
      "<|user|>": 2,
      "<|assistant|>": 3,
      "<|end|>": 4,
      "!": 5,
      "\"": 6,
      "#": 7,
      "$": 8,
      "%": 9,
      "&": 10,
      "'": 11,
      ")": 12,
      "*": 13,
      "+": 14,
      ",": 15,
      "-": 16,
      ".": 17,
      "/": 18,
      "0": 19,
      "1": 20,
      "2": 21,
      "3": 22,
      "4": 23,
      "5": 24,
      "6": 25,
      "7": 26,
      "8": 27,
      "9": 28,
      ":": 29,
      ";": 30,
      "<": 31,
      ">": 32,
      "?": 33,
      "A": 34,
      "B": 35,
      "C": 36,
      "D": 37,
      "E": 38,
      "F": 39,
      "G": 40,
      "H": 41,
      "I": 42,
      "J": 43,
      "K": 44,
      "L": 45,
      "M": 46,
      "N": 47,
      "O": 48,
      "P": 49,
      "Q": 50,
      "R": 51,
      "S": 52,
      "T": 53,
      "U": 54,
      "V": 55,
      "W": 56,
      "X": 57,
      "Y": 58,
      "Z": 59,
      "[": 60,
      "]": 61,
      "`": 62,
      "a": 63,
      "b": 64,
      "c": 65,
      "d": 66,
      "e": 67,
      "f": 68,
      "g": 69,
      "h": 70,
      "i": 71,
      "j": 72,
      "k": 73,
      "l": 74,
      "m": 75,
      "n": 76,
      "o": 77,
      "p": 78,
      "q": 79,
      "r": 80,
      "s": 81,
      "t": 82,
      "u": 83,
      "v": 84,
      "w": 85,
      "x": 86,
      "y": 87,
      "z": 88,
      "|": 89,
      "~": 90,
      "<|": 91,
      "|>": 92,
      "er": 93,
      "an": 94,
      "ou": 95,
      "th": 96,
      "is": 97,
      "en": 98,
      "as": 99,
      "us": 100,
      ".<|": 101,
      "in": 102,
      "ant": 103,
      "ist": 104,
      "end": 105,
      "ass": 106,
      "assist": 107,
      "assistant": 108,
      "user": 109,
      "you": 110,
      "on": 111,
      "at": 112,
      "re": 113,
      "to": 114,
      "the": 115,
      "ll": 116,
      "ing": 117,
      "me": 118,
      "?<|": 119,
      "it": 120,
      "or": 121,
      "..": 122,
      "ow": 123,
      "ve": 124,
      "he": 125,
      "ar": 126,
      "es": 127,
      "hat": 128,
      "le": 129,
      "be": 130,
      "ed": 131,
      "ot": 132,
      "ay": 133,
      "of": 134,
      "ere": 135,
      "You": 136,
      "ha": 137,
      "and": 138,
      "se": 139,
      "id": 140,
      "gh": 141,
      "that": 142,
      "al": 143,
      "ke": 144,
      "st": 145,
      "ck": 146,
      "et": 147,
      "li": 148,
      "do": 149,
      "now": 150,
      "ld": 151,
      "all": 152,
      "ut": 153,
      "oo": 154,
      "out": 155,
      "ght": 156,
      "ome": 157,
      "...": 158,
      "ver": 159,
      "for": 160,
      "ri": 161,
      "we": 162,
      "wi": 163,
      "ch": 164,
      "ad": 165,
      "here": 166,
      "What": 167,
      "--": 168,
      "!<|": 169,
      "ust": 170,
      "know": 171,
      "ce": 172,
      "om": 173,
      "one": 174,
      "your": 175,
      "go": 176,
      "have": 177,
      "ab": 178,
      "nd": 179,
      "my": 180,
      "We": 181,
      "ti": 182,
      "thing": 183,
      "don": 184,
      "are": 185,
      "ne": 186,
      "this": 187,
      "hi": 188,
      "ould": 189,
      "was": 190,
      "ir": 191,
      "...<|": 192,
      "It": 193,
      "ly": 194,
      "not": 195,
      "The": 196,
      "can": 197,
      "ho": 198,
      "what": 199,
      "with": 200,
      "up": 201,
      "get": 202,
      "He": 203,
      "ent": 204,
      "am": 205,
      "ink": 206,
      "ther": 207,
      "some": 208,
      "ry": 209,
      "ro": 210,
      "want": 211,
      "No": 212,
      "like": 213,
      "ter": 214,
      "just": 215,
      "about": 216,
      "ea": 217,
      "lo": 218,
      "un": 219,
      "sh": 220,
      "got": 221,
      "if": 222,
      "ta": 223,
      "mo": 224,
      "ra": 225,
      "think": 226,
      "Th": 227,
      "no": 228,
      "fe": 229,
      "any": 230,
      "did": 231,
      "ill": 232,
      "ion": 233,
      "te": 234,
      "so": 235,
      "him": 236,
      "ur": 237,
      "ight": 238,
      "ood": 239,
      "way": 240,
      "wor": 241,
      "our": 242,
      "That": 243,
      "ct": 244,
      "pe": 245,
      "ook": 246,
      "de": 247,
      "right": 248,
      "bo": 249,
      "hy": 250,
      "very": 251,
      "ack": 252,
      "ag": 253,
      "ind": 254,
      "ally": 255,
      "po": 256,
      "gu": 257,
      "there": 258,
      "see": 259,
      "And": 260,
      "ic": 261,
      "man": 262,
      "sa": 263,
      "pp": 264,
      "but": 265,
      "ive": 266,
      "ma": 267,
      "Oh": 268,
      "na": 269,
      "they": 270,
      "el": 271,
      "ess": 272,
      "pl": 273,
      "uck": 274,
      "going": 275,
      "art": 276,
      "say": 277,
      "--<|": 278,
      "ure": 279,
      "But": 280,
      "Well": 281,
      "her": 282,
      "ca": 283,
      "time": 284,
      "ple": 285,
      "eah": 286,
      "How": 287,
      "est": 288,
      "Yes": 289,
      "rom": 290,
      "ard": 291,
      "con": 292,
      "ate": 293,
      "ain": 294,
      "own": 295,
      "ong": 296,
      "ul": 297,
      "il": 298,
      "would": 299,
      "hen": 300,
      "ig": 301,
      "ex": 302,
      "ers": 303,
      "alk": 304,
      "Yeah": 305,
      "ie": 306,
      "ank": 307,
      "tell": 308,
      "ven": 309,
      "will": 310,
      "ge": 311,
      "ast": 312,
      "could": 313,
      "back": 314,
      "been": 315,
      "ine": 316,
      "who": 317,
      "dy": 318,
      "ound": 319,
      "use": 320,
      "Do": 321,
      "good": 322,
      "too": 323,
      "So": 324,
      "come": 325,
      "ss": 326,
      "Why": 327,
      "com": 328,
      "ep": 329,
      "ick": 330,
      "look": 331,
      "co": 332,
      "fa": 333,
      "ation": 334,
      "she": 335,
      "them": 336,
      "itt": 337,
      "were": 338,
      "how": 339,
      "from": 340,
      "qu": 341,
      "ous": 342,
      "off": 343,
      "They": 344,
      "ble": 345,
      "kay": 346,
      "his": 347,
      "mean": 348,
      "lf": 349,
      "didn": 350,
      "Don": 351,
      "day": 352,
      "im": 353,
      "talk": 354,
      "und": 355,
      "This": 356,
      "ase": 357,
      "tr": 358,
      "need": 359,
      "other": 360,
      "Go": 361,
      "um": 362,
      "something": 363,
      "uch": 364,
      "work": 365,
      "pro": 366,
      "Mr": 367,
      "happ": 368,
      "guy": 369,
      "If": 370,
      "never": 371,
      "fuck": 372,
      "fo": 373,
      "more": 374,
      "sp": 375,
      "ough": 376,
      "let": 377,
      "had": 378,
      "take": 379,
      "ittle": 380,
      "when": 381,
      "ber": 382,
      "red": 383,
      "ac": 384,
      "ever": 385,
      "every": 386,
      "per": 387,
      "really": 388,
      "down": 389,
      "little": 390,
      "ought": 391,
      "ice": 392,
      "ave": 393,
      "She": 394,
      "ty": 395,
      "by": 396,
      "gon": 397,
      "pre": 398,
      "tion": 399,
      "should": 400,
      "body": 401,
      "ob": 402,
      "wo": 403,
      "make": 404,
      "where": 405,
      "ide": 406,
      "over": 407,
      "call": 408,
      "gonna": 409,
      "ear": 410,
      "sto": 411,
      "does": 412,
      "There": 413,
      "Where": 414,
      "kill": 415,
      "Just": 416,
      "won": 417,
      "af": 418,
      "Is": 419,
      "ap": 420,
      "happen": 421,
      "bet": 422,
      "has": 423,
      "lie": 424,
      "much": 425,
      "sc": 426,
      "aybe": 427,
      "self": 428,
      "love": 429,
      "orry": 430,
      "read": 431,
      "oney": 432,
      "My": 433,
      "Not": 434,
      "iss": 435,
      "ort": 436,
      "Who": 437,
      "said": 438,
      "cause": 439,
      "ople": 440,
      "Let": 441,
      "try": 442,
      "ait": 443,
      "king": 444,
      "then": 445,
      "che": 446,
      "em": 447,
      "bl": 448,
      "give": 449,
      "only": 450,
      "new": 451,
      "sure": 452,
      "mor": 453,
      "under": 454,
      "fore": 455,
      "fri": 456,
      "night": 457,
      "tor": 458,
      "ree": 459,
      "gr": 460,
      "ment": 461,
      "God": 462,
      "must": 463,
      "reat": 464,
      "two": 465,
      "why": 466,
      "ning": 467,
      "Now": 468,
      "ish": 469,
      "Be": 470,
      "ace": 471,
      "ving": 472,
      "min": 473,
      "people": 474,
      "Good": 475,
      "ff": 476,
      "wr": 477,
      "long": 478,
      "even": 479,
      "stand": 480,
      "doing": 481,
      "Thank": 482,
      "find": 483,
      "ny": 484,
      "der": 485,
      "ite": 486,
      "bu": 487,
      "ue": 488,
      "anything": 489,
      "ting": 490,
      "lp": 491,
      "irst": 492,
      "Look": 493,
      "Okay": 494,
      "act": 495,
      "thought": 496,
      "di": 497,
      "ang": 498,
      "ity": 499,
      "ade": 500,
      "fi": 501,
      "ins": 502,
      "shit": 503,
      "feel": 504,
      "Did": 505,
      "Are": 506,
      "la": 507,
      "money": 508,
      "lieve": 509,
      "friend": 510,
      "Re": 511,
      "again": 512,
      "In": 513,
      "put": 514,
      "sorry": 515,
      "ask": 516,
      "help": 517,
      "ake": 518,
      "ps": 519,
      "int": 520,
      "ways": 521,
      "tra": 522,
      "home": 523,
      "than": 524,
      "these": 525,
      "better": 526,
      "ton": 527,
      "age": 528,
      "br": 529,
      "kind": 530,
      "row": 531,
      "sir": 532,
      "old": 533,
      "year": 534,
      "before": 535,
      "life": 536,
      "believe": 537,
      "cour": 538,
      "mber": 539,
      "Then": 540,
      "ak": 541,
      "All": 542,
      "still": 543,
      "Hey": 544,
      "ance": 545,
      "okay": 546,
      "yes": 547,
      "gir": 548,
      "able": 549,
      "into": 550,
      "well": 551,
      "Your": 552,
      "dr": 553,
      "name": 554,
      "mon": 555,
      "place": 556,
      "ool": 557,
      "dam": 558,
      "first": 559,
      "last": 560,
      "ose": 561,
      "head": 562,
      "care": 563,
      "course": 564,
      "ies": 565,
      "ell": 566,
      "men": 567,
      "keep": 568,
      "uh": 569,
      "Maybe": 570,
      "part": 571,
      "around": 572,
      "oom": 573,
      "bad": 574,
      "told": 575,
      "sup": 576,
      "pr": 577,
      "su": 578,
      "wait": 579,
      "Can": 580,
      "son": 581,
      "member": 582,
      "wom": 583,
      "ser": 584,
      "went": 585,
      "mar": 586,
      "ise": 587,
      "things": 588,
      "urn": 589,
      "bab": 590,
      "girl": 591,
      "Jo": 592,
      "ready": 593,
      "mat": 594,
      "guess": 595,
      "job": 596,
      "si": 597,
      "ence": 598,
      "For": 599,
      "ft": 600,
      "ull": 601,
      "cou": 602,
      "whi": 603,
      "Some": 604,
      "shi": 605,
      "isn": 606,
      "kid": 607,
      "always": 608,
      "Se": 609,
      "car": 610,
      "clo": 611,
      "real": 612,
      "lot": 613,
      "thr": 614,
      "pos": 615,
      "minut": 616,
      "isten": 617,
      "start": 618,
      "Ch": 619,
      "understand": 620,
      "big": 621,
      "happened": 622,
      "hand": 623,
      "mind": 624,
      "ci": 625,
      "|>...": 626,
      "stu": 627,
      "hell": 628,
      "doesn": 629,
      "after": 630,
      "bus": 631,
      "mer": 632,
      "those": 633,
      "show": 634,
      "Come": 635,
      "Sh": 636,
      "away": 637,
      "boy": 638,
      "ign": 639,
      "ans": 640,
      "wrong": 641,
      "dis": 642,
      "ol": 643,
      "Fr": 644,
      "St": 645,
      "gl": 646,
      "hear": 647,
      "tain": 648,
      "nothing": 649,
      "When": 650,
      "their": 651,
      "might": 652,
      "cle": 653,
      "kes": 654,
      "ms": 655,
      "dead": 656,
      "ful": 657,
      "op": 658,
      "father": 659,
      "wat": 660,
      "ret": 661,
      "else": 662,
      "stay": 663,
      "ried": 664,
      "remember": 665,
      "most": 666,
      "guys": 667,
      "everything": 668,
      "ious": 669,
      "because": 670,
      "ame": 671,
      "port": 672,
      "res": 673,
      "bit": 674,
      "ike": 675,
      "ru": 676,
      "inter": 677,
      "live": 678,
      "cl": 679,
      "ord": 680,
      "great": 681,
      "iz": 682,
      "run": 683,
      "gotta": 684,
      "please": 685,
      "ctor": 686,
      "fin": 687,
      "years": 688,
      "cra": 689,
      "miss": 690,
      "ary": 691,
      "leave": 692,
      "Ex": 693,
      "fer": 694,
      "made": 695,
      "ten": 696,
      "ange": 697,
      "bro": 698,
      "pt": 699,
      "through": 700,
      "sho": 701,
      "enough": 702,
      "pect": 703,
      "damn": 704,
      "lease": 705,
      "dre": 706,
      "Right": 707,
      "talking": 708,
      "heard": 709,
      "Ne": 710,
      "room": 711,
      "another": 712,
      "wouldn": 713,
      "coming": 714,
      "ek": 715,
      "meet": 716,
      "fucking": 717,
      "Mo": 718,
      "wanted": 719,
      "came": 720,
      "yourself": 721,
      "plan": 722,
      "play": 723,
      "Mrs": 724,
      "Please": 725,
      "par": 726,
      "ya": 727,
      "point": 728,
      ".\"": 729,
      "Get": 730,
      "Jes": 731,
      "ouse": 732,
      "done": 733,
      "leep": 734,
      "getting": 735,
      "word": 736,
      "bre": 737,
      "Ro": 738,
      "three": 739,
      "Ma": 740,
      "air": 741,
      "tic": 742,
      "Any": 743,
      "ner": 744,
      "Har": 745,
      "sha": 746,
      "Al": 747,
      "Tell": 748,
      "left": 749,
      "iness": 750,
      "cond": 751,
      "erson": 752,
      "Of": 753,
      "used": 754,
      "looking": 755,
      "De": 756,
      "One": 757,
      "cy": 758,
      "jo": 759,
      "less": 760,
      "mother": 761,
      "Dad": 762,
      "gg": 763,
      "ph": 764,
      "fun": 765,
      "wasn": 766,
      "pret": 767,
      "matter": 768,
      "ually": 769,
      "ship": 770,
      "cer": 771,
      "nice": 772,
      "week": 773,
      "proble": 774,
      "Every": 775,
      "maybe": 776,
      "sm": 777,
      "coun": 778,
      "ith": 779,
      "world": 780,
      "says": 781,
      "av": 782,
      "house": 783,
      "rist": 784,
      "ons": 785,
      "tonight": 786,
      "business": 787,
      "hur": 788,
      "pay": 789,
      "hour": 790,
      "ince": 791,
      "set": 792,
      "Hell": 793,
      "trying": 794,
      "aw": 795,
      "ild": 796,
      "thank": 797,
      "ves": 798,
      "stuff": 799,
      "five": 800,
      "knew": 801,
      "deal": 802,
      "An": 803,
      "au": 804,
      "already": 805,
      "stop": 806,
      "To": 807,
      "undred": 808,
      "Here": 809,
      "des": 810,
      "may": 811,
      "woman": 812,
      "side": 813,
      "haven": 814,
      "idea": 815,
      "someone": 816,
      "morning": 817,
      "Have": 818,
      "being": 819,
      "Ar": 820,
      "Ben": 821,
      "Jack": 822,
      "bar": 823,
      "dif": 824,
      "ger": 825,
      "hundred": 826,
      "die": 827,
      "light": 828,
      "ult": 829,
      "Because": 830,
      "person": 831,
      "sit": 832,
      "estion": 833,
      "seen": 834,
      "As": 835,
      "app": 836,
      "saw": 837,
      "killed": 838,
      "Thanks": 839,
      "Com": 840,
      "Like": 841,
      "Sure": 842,
      "med": 843,
      "best": 844,
      "each": 845,
      "On": 846,
      "Uh": 847,
      "wer": 848,
      "anc": 849,
      "ark": 850,
      "same": 851,
      "Christ": 852,
      "cut": 853,
      "hard": 854,
      "sing": 855,
      "whole": 856,
      "drink": 857,
      "while": 858,
      "ction": 859,
      "many": 860,
      "Jesus": 861,
      "hn": 862,
      "sch": 863,
      "ated": 864,
      "Nothing": 865,
      "pretty": 866,
      "war": 867,
      "yet": 868,
      "ason": 869,
      "fine": 870,
      "gun": 871,
      "ian": 872,
      "xt": 873,
      "poss": 874,
      "times": 875,
      "check": 876,
      "John": 877,
      "cre": 878,
      "swe": 879,
      "spe": 880,
      "rest": 881,
      "ved": 882,
      "alone": 883,
      "question": 884,
      "bor": 885,
      "dri": 886,
      "sleep": 887,
      "late": 888,
      "tow": 889,
      "str": 890,
      "morrow": 891,
      "tomorrow": 892,
      "rick": 893,
      "posed": 894,
      "cent": 895,
      "found": 896,
      "ible": 897,
      "land": 898,
      "hope": 899,
      "shot": 900,
      "worry": 901,
      "Dr": 902,
      "Hi": 903,
      "pa": 904,
      "its": 905,
      "next": 906,
      "minute": 907,
      "Br": 908,
      "fam": 909,
      "zy": 910,
      "god": 911,
      "few": 912,
      "wonder": 913,
      "Pe": 914,
      "far": 915,
      "bed": 916,
      "lice": 917,
      "Mom": 918,
      "|>--": 919,
      "ouble": 920,
      "Will": 921,
      "Wait": 922,
      "huh": 923,
      "luck": 924,
      "hed": 925,
      "four": 926,
      "ia": 927,
      "mm": 928,
      "ug": 929,
      "vis": 930,
      "til": 931,
      "raid": 932,
      "bably": 933,
      "interest": 934,
      "Hello": 935,
      "differ": 936,
      "ather": 937,
      "mom": 938,
      "door": 939,
      "Really": 940,
      "lad": 941,
      "walk": 942,
      "Co": 943,
      "cha": 944,
      "sur": 945,
      "turn": 946,
      "second": 947,
      "myself": 948,
      "cont": 949,
      "actly": 950,
      ".\"<|": 951,
      "problem": 952,
      "listen": 953,
      "took": 954,
      "Or": 955,
      "ect": 956,
      "comp": 957,
      "ousand": 958,
      "?!<|": 959,
      "gen": 960,
      "low": 961,
      "vi": 962,
      "school": 963,
      "eas": 964,
      "gone": 965,
      "vie": 966,
      "thousand": 967,
      "En": 968,
      "pi": 969,
      "saying": 970,
      "days": 971,
      "lat": 972,
      "knows": 973,
      "without": 974,
      "wants": 975,
      "bring": 976,
      "break": 977,
      "fight": 978,
      "ily": 979,
      "led": 980,
      "bea": 981,
      "Take": 982,
      "pick": 983,
      "once": 984,
      "ars": 985,
      "Le": 986,
      "les": 987,
      "prom": 988,
      "afraid": 989,
      "supposed": 990,
      "Harry": 991,
      "sen": 992,
      "|>\"": 993,
      "soon": 994,
      "gether": 995,
      "fire": 996,
      "six": 997,
      "See": 998,
      "case": 999,
      "since": 1000,
      "ister": 1001,
      "working": 1002,
      "press": 1003,
      "town": 1004,
      "yeah": 1005,
      "ition": 1006,
      "hold": 1007,
      "eak": 1008,
      "pped": 1009,
      "friends": 1010,
      "Rick": 1011,
      "aren": 1012,
      "-<|": 1013,
      "ither": 1014,
      "ness": 1015,
      "such": 1016,
      "together": 1017,
      "ents": 1018,
      "Man": 1019,
      "wife": 1020,
      "char": 1021,
      "lock": 1022,
      "called": 1023,
      "baby": 1024,
      "minutes": 1025,
      "hurt": 1026,
      "Listen": 1027,
      "Sorry": 1028,
      "cuse": 1029,
      "ud": 1030,
      "ash": 1031,
      "couldn": 1032,
      "trouble": 1033,
      "wenty": 1034,
      "watch": 1035,
      "hate": 1036,
      "iful": 1037,
      "beaut": 1038,
      "band": 1039,
      "hot": 1040,
      "least": 1041,
      "full": 1042,
      "gra": 1043,
      "sound": 1044,
      "llow": 1045,
      "ident": 1046,
      "cho": 1047,
      "change": 1048,
      "fect": 1049,
      "crazy": 1050,
      "cr": 1051,
      "cus": 1052,
      "cti": 1053,
      "eat": 1054,
      "sy": 1055,
      "today": 1056,
      "ket": 1057,
      "ste": 1058,
      "Bo": 1059,
      "Would": 1060,
      "pri": 1061,
      "ared": 1062,
      "ical": 1063,
      "tru": 1064,
      "brother": 1065,
      "At": 1066,
      "cor": 1067,
      "fr": 1068,
      "hon": 1069,
      "lost": 1070,
      "anyone": 1071,
      "expect": 1072,
      "probably": 1073,
      "Mar": 1074,
      "half": 1075,
      "lic": 1076,
      "until": 1077,
      "move": 1078,
      "true": 1079,
      "umber": 1080,
      "Un": 1081,
      "ire": 1082,
      "vo": 1083,
      "top": 1084,
      "ters": 1085,
      "ations": 1086,
      "actually": 1087,
      "mine": 1088,
      "pen": 1089,
      "ery": 1090,
      "atch": 1091,
      "form": 1092,
      "somebody": 1093,
      "both": 1094,
      "pose": 1095,
      "story": 1096,
      "Ah": 1097,
      "Sir": 1098,
      "With": 1099,
      "ef": 1100,
      "hit": 1101,
      "sick": 1102,
      "ub": 1103,
      "wish": 1104,
      "rey": 1105,
      "ress": 1106,
      "dream": 1107,
      "lin": 1108,
      "anna": 1109,
      "stup": 1110,
      "exactly": 1111,
      "comm": 1112,
      "open": 1113,
      "shoot": 1114,
      "New": 1115,
      "00": 1116,
      "Bob": 1117,
      "Chi": 1118,
      "ago": 1119,
      "ele": 1120,
      "ator": 1121,
      "quite": 1122,
      "fuckin": 1123,
      "beautiful": 1124,
      "stupid": 1125,
      "Tom": 1126,
      "fif": 1127,
      "ze": 1128,
      "ont": 1129,
      "makes": 1130,
      "speak": 1131,
      "law": 1132,
      "Me": 1133,
      "vent": 1134,
      "key": 1135,
      "child": 1136,
      "gets": 1137,
      "anyway": 1138,
      "Frank": 1139,
      "ding": 1140,
      "ng": 1141,
      "cept": 1142,
      "ird": 1143,
      "El": 1144,
      "reason": 1145,
      "unk": 1146,
      "happy": 1147,
      "which": 1148,
      "hours": 1149,
      "Her": 1150,
      "Po": 1151,
      "tri": 1152,
      "high": 1153,
      "thinking": 1154,
      "possible": 1155,
      "bout": 1156,
      "ned": 1157,
      "ring": 1158,
      "aine": 1159,
      "bull": 1160,
      "month": 1161,
      "Je": 1162,
      "hor": 1163,
      "vor": 1164,
      "eath": 1165,
      "teen": 1166,
      "sol": 1167,
      "buy": 1168,
      "serious": 1169,
      "dro": 1170,
      "itch": 1171,
      "ower": 1172,
      "making": 1173,
      "ump": 1174,
      "waiting": 1175,
      "different": 1176,
      "Bar": 1177,
      "Fuck": 1178,
      "gin": 1179,
      "vil": 1180,
      "young": 1181,
      "amin": 1182,
      "unch": 1183,
      "cture": 1184,
      "face": 1185,
      "ize": 1186,
      "Bl": 1187,
      "det": 1188,
      "pie": 1189,
      "wanna": 1190,
      "taking": 1191,
      "party": 1192,
      "Gu": 1193,
      "Lo": 1194,
      "gi": 1195,
      "enti": 1196,
      "att": 1197,
      "Does": 1198,
      "mission": 1199,
      "!!": 1200,
      "hus": 1201,
      "met": 1202,
      "sec": 1203,
      "worth": 1204,
      "plain": 1205,
      "married": 1206,
      "Per": 1207,
      "Say": 1208,
      "ling": 1209,
      "ris": 1210,
      "sk": 1211,
      "ross": 1212,
      "log": 1213,
      "comes": 1214,
      "Ste": 1215,
      "cri": 1216,
      "fast": 1217,
      "rid": 1218,
      "inc": 1219,
      "lear": 1220,
      "doll": 1221,
      "ances": 1222,
      "family": 1223,
      "contro": 1224,
      "easy": 1225,
      "pass": 1226,
      "telling": 1227,
      "import": 1228,
      "trust": 1229,
      "drive": 1230,
      "goddamn": 1231,
      "ba": 1232,
      "fre": 1233,
      "ene": 1234,
      "inv": 1235,
      "stra": 1236,
      "dear": 1237,
      "Shit": 1238,
      "dress": 1239,
      "husband": 1240,
      "send": 1241,
      "sent": 1242,
      "twenty": 1243,
      "ating": 1244,
      "als": 1245,
      "dec": 1246,
      "phone": 1247,
      "ey": 1248,
      "io": 1249,
      "ings": 1250,
      "haps": 1251,
      "chance": 1252,
      "till": 1253,
      "hole": 1254,
      "truth": 1255,
      "book": 1256,
      "line": 1257,
      "fort": 1258,
      "shut": 1259,
      "everybody": 1260,
      "figu": 1261,
      "bitch": 1262,
      "Elaine": 1263,
      "Dan": 1264,
      "Two": 1265,
      "cord": 1266,
      "du": 1267,
      "either": 1268,
      "vel": 1269,
      "inside": 1270,
      "water": 1271,
      "ctive": 1272,
      "Cap": 1273,
      "Ge": 1274,
      "HE": 1275,
      "ball": 1276,
      "ken": 1277,
      "number": 1278,
      "looks": 1279,
      "apart": 1280,
      "lady": 1281,
      "Give": 1282,
      "Miss": 1283,
      "OU": 1284,
      "Pat": 1285,
      "Vic": 1286,
      "sim": 1287,
      "mess": 1288,
      "order": 1289,
      "heart": 1290,
      "ote": 1291,
      "having": 1292,
      "ander": 1293,
      "sex": 1294,
      "wear": 1295,
      "movie": 1296,
      "anymore": 1297,
      "illion": 1298,
      "scre": 1299,
      "women": 1300,
      "clean": 1301,
      "important": 1302,
      "By": 1303,
      "gave": 1304,
      "hu": 1305,
      "ier": 1306,
      "sort": 1307,
      "sign": 1308,
      "ught": 1309,
      "ory": 1310,
      "ards": 1311,
      "clear": 1312,
      "later": 1313,
      "control": 1314,
      "Amer": 1315,
      "IN": 1316,
      "power": 1317,
      "eral": 1318,
      "ork": 1319,
      "irty": 1320,
      "anybody": 1321,
      "cop": 1322,
      "means": 1323,
      "anger": 1324,
      "promise": 1325,
      "Cl": 1326,
      "bur": 1327,
      "gent": 1328,
      "lor": 1329,
      "ster": 1330,
      "ute": 1331,
      "wel": 1332,
      "safe": 1333,
      "answer": 1334,
      "Gr": 1335,
      "Pet": 1336,
      "Ray": 1337,
      "az": 1338,
      "ach": 1339,
      "aving": 1340,
      "dra": 1341,
      "eyes": 1342,
      "ix": 1343,
      "mit": 1344,
      "though": 1345,
      "alive": 1346,
      "along": 1347,
      "tired": 1348,
      "police": 1349,
      "suppose": 1350,
      "funny": 1351,
      "certain": 1352,
      "Could": 1353,
      "pain": 1354,
      "ual": 1355,
      "vice": 1356,
      "leg": 1357,
      "seems": 1358,
      "comple": 1359,
      "Maj": 1360,
      "Engl": 1361,
      "Ho": 1362,
      "ail": 1363,
      "bank": 1364,
      "dad": 1365,
      "game": 1366,
      "thin": 1367,
      "tot": 1368,
      "forget": 1369,
      "qui": 1370,
      "boys": 1371,
      "Excuse": 1372,
      "aught": 1373,
      "crew": 1374,
      "picture": 1375,
      "Dav": 1376,
      "Got": 1377,
      "ah": 1378,
      "ahead": 1379,
      "bra": 1380,
      "den": 1381,
      "pull": 1382,
      "tried": 1383,
      "eng": 1384,
      "inner": 1385,
      "ones": 1386,
      "yours": 1387,
      "blood": 1388,
      "black": 1389,
      "cial": 1390,
      "Captain": 1391,
      "Father": 1392,
      "Hal": 1393,
      "bb": 1394,
      "death": 1395,
      "pat": 1396,
      "rad": 1397,
      "ised": 1398,
      "pleas": 1399,
      "conf": 1400,
      "ility": 1401,
      "running": 1402,
      "count": 1403,
      "Car": 1404,
      "Never": 1405,
      "daught": 1406,
      "fil": 1407,
      "doctor": 1408,
      "office": 1409,
      "happens": 1410,
      "ched": 1411,
      "brought": 1412,
      "close": 1413,
      "Daddy": 1414,
      "Benj": 1415,
      "piece": 1416,
      "Con": 1417,
      "cc": 1418,
      "hun": 1419,
      "hang": 1420,
      "mur": 1421,
      "outh": 1422,
      "asking": 1423,
      "ush": 1424,
      "rect": 1425,
      "cell": 1426,
      "omer": 1427,
      "hose": 1428,
      "illy": 1429,
      "bye": 1430,
      "train": 1431,
      "Shut": 1432,
      "joy": 1433,
      "?!": 1434,
      "His": 1435,
      "bag": 1436,
      "cit": 1437,
      "date": 1438,
      "lan": 1439,
      "ride": 1440,
      "rel": 1441,
      "lose": 1442,
      "fair": 1443,
      "follow": 1444,
      "Roy": 1445,
      "Only": 1446,
      "Benjamin": 1447,
      "Mer": 1448,
      "Ri": 1449,
      "fall": 1450,
      "ished": 1451,
      "ates": 1452,
      "resp": 1453,
      "ital": 1454,
      "ides": 1455,
      "lying": 1456,
      "Nobody": 1457,
      "against": 1458,
      "asked": 1459,
      "hands": 1460,
      "shall": 1461,
      "Victor": 1462,
      "Was": 1463,
      "Whi": 1464,
      "ced": 1465,
      "mil": 1466,
      "test": 1467,
      "van": 1468,
      "thes": 1469,
      "ider": 1470,
      "dog": 1471,
      "kidding": 1472,
      "dollars": 1473,
      "complete": 1474,
      "David": 1475,
      "AT": 1476,
      "Fine": 1477,
      "OK": 1478,
      "cam": 1479,
      "eight": 1480,
      "free": 1481,
      "ked": 1482,
      "nor": 1483,
      "ren": 1484,
      "almost": 1485,
      "vers": 1486,
      "offic": 1487,
      "everyone": 1488,
      "news": 1489,
      "sub": 1490,
      "girls": 1491,
      "kids": 1492,
      "class": 1493,
      "front": 1494,
      "</": 1495,
      "Homer": 1496,
      "Par": 1497,
      "Very": 1498,
      "fool": 1499,
      "ib": 1500,
      "ject": 1501,
      "million": 1502,
      "oh": 1503,
      "ense": 1504,
      "reet": 1505,
      "orge": 1506,
      "hair": 1507,
      "star": 1508,
      "Doctor": 1509,
      "umb": 1510,
      "grand": 1511,
      "Something": 1512,
      "glad": 1513,
      "Everything": 1514,
      "Jeff": 1515,
      "straight": 1516,
      "ON": 1517,
      "Pro": 1518,
      "Stop": 1519,
      "cu": 1520,
      "ience": 1521,
      "lt": 1522,
      "nie": 1523,
      "por": 1524,
      "|>'": 1525,
      "oun": 1526,
      "ative": 1527,
      "record": 1528,
      "arm": 1529,
      "leaving": 1530,
      "goes": 1531,
      "rather": 1532,
      "seem": 1533,
      "cap": 1534,
      "coll": 1535,
      "scared": 1536,
      "months": 1537,
      "Ger": 1538,
      "Ted": 1539,
      "cal": 1540,
      "honey": 1541,
      "igh": 1542,
      "mus": 1543,
      "val": 1544,
      "aster": 1545,
      "report": 1546,
      "needs": 1547,
      "appe": 1548,
      "blow": 1549,
      "feeling": 1550,
      "respon": 1551,
      "?\"": 1552,
      "Am": 1553,
      "Dign": 1554,
      "RE": 1555,
      "West": 1556,
      "sus": 1557,
      "win": 1558,
      "wall": 1559,
      "zart": 1560,
      "beat": 1561,
      "ott": 1562,
      "whatever": 1563,
      "explain": 1564,
      "ounds": 1565,
      "fact": 1566,
      "Mozart": 1567,
      "plane": 1568,
      "apartment": 1569,
      "Dignan": 1570,
      "AN": 1571,
      "Dick": 1572,
      "LL": 1573,
      "Rob": 1574,
      "mid": 1575,
      "mad": 1576,
      "sl": 1577,
      "ens": 1578,
      "hall": 1579,
      "sel": 1580,
      "alright": 1581,
      "ucks": 1582,
      "acc": 1583,
      "perfect": 1584,
      "Comm": 1585,
      "Peel": 1586,
      "murder": 1587,
      "Great": 1588,
      "IS": 1589,
      "Ke": 1590,
      "Sam": 1591,
      "Those": 1592,
      "Vi": 1593,
      "dist": 1594,
      "dest": 1595,
      "ks": 1596,
      "cks": 1597,
      "road": 1598,
      "cons": 1599,
      "favor": 1600,
      "small": 1601,
      "country": 1602,
      "People": 1603,
      "interested": 1604,
      "moment": 1605,
      "Af": 1606,
      "Lu": 1607,
      "ces": 1608,
      "ili": 1609,
      "mal": 1610,
      "wind": 1611,
      "thirty": 1612,
      "memor": 1613,
      "stem": 1614,
      "rible": 1615,
      "omb": 1616,
      "somewhere": 1617,
      "rying": 1618,
      "ession": 1619,
      "exper": 1620,
      "quit": 1621,
      "clothes": 1622,
      "lucky": 1623,
      "George": 1624,
      "Nice": 1625,
      "Pres": 1626,
      "YOU": 1627,
      "phy": 1628,
      "sal": 1629,
      "tou": 1630,
      "une": 1631,
      "seven": 1632,
      "cked": 1633,
      "uni": 1634,
      "short": 1635,
      "ately": 1636,
      "ext": 1637,
      "cover": 1638,
      "fault": 1639,
      "died": 1640,
      "Didn": 1641,
      "psy": 1642,
      "couple": 1643,
      "started": 1644,
      "playing": 1645,
      "thanks": 1646,
      "Patrick": 1647,
      "human": 1648,
      "daughter": 1649,
      "Ca": 1650,
      "Dam": 1651,
      "flo": 1652,
      "fic": 1653,
      "ki": 1654,
      "mist": 1655,
      "ward": 1656,
      "known": 1657,
      "These": 1658,
      "sold": 1659,
      "concer": 1660,
      "words": 1661,
      "sense": 1662,
      "solute": 1663,
      "drop": 1664,
      "Baron": 1665,
      "secret": 1666,
      "Which": 1667,
      "Four": 1668,
      "Tr": 1669,
      "cool": 1670,
      "dle": 1671,
      "esides": 1672,
      "chang": 1673,
      "Think": 1674,
      "pper": 1675,
      "esty": 1676,
      "build": 1677,
      "meeting": 1678,
      "weeks": 1679,
      "fifty": 1680,
      "Herr": 1681,
      "totally": 1682,
      "Bri": 1683,
      "Sc": 1684,
      "York": 1685,
      "ath": 1686,
      "aven": 1687,
      "city": 1688,
      "dance": 1689,
      "fl": 1690,
      "hh": 1691,
      "hind": 1692,
      "ime": 1693,
      "mis": 1694,
      "wh": 1695,
      "oud": 1696,
      "throw": 1697,
      "ony": 1698,
      "army": 1699,
      "fee": 1700,
      "himself": 1701,
      "bullshit": 1702,
      ".'": 1703,
      "Dun": 1704,
      "Mother": 1705,
      "Nor": 1706,
      "ican": 1707,
      "lar": 1708,
      "sister": 1709,
      "teach": 1710,
      "uation": 1711,
      "ison": 1712,
      "ants": 1713,
      "reg": 1714,
      "begin": 1715,
      "behind": 1716,
      "ular": 1717,
      "offer": 1718,
      "works": 1719,
      "worked": 1720,
      "Isn": 1721,
      "fix": 1722,
      "Remember": 1723,
      "position": 1724,
      "parents": 1725,
      "Alright": 1726,
      "figure": 1727,
      "Commander": 1728,
      "After": 1729,
      "Col": 1730,
      "Dor": 1731,
      "First": 1732,
      "Our": 1733,
      "Pr": 1734,
      "Sm": 1735,
      "danger": 1736,
      "dinner": 1737,
      "een": 1738,
      "food": 1739,
      "ial": 1740,
      "lay": 1741,
      "mag": 1742,
      "oper": 1743,
      "past": 1744,
      "ts": 1745,
      "wed": 1746,
      "thy": 1747,
      "living": 1748,
      "forgot": 1749,
      "ries": 1750,
      "ween": 1751,
      "near": 1752,
      "hosp": 1753,
      "worse": 1754,
      "post": 1755,
      "imag": 1756,
      "shouldn": 1757,
      "loved": 1758,
      "weren": 1759,
      "gentle": 1760,
      "Jeffrey": 1761,
      "President": 1762,
      "About": 1763,
      "Call": 1764,
      "Hold": 1765,
      "May": 1766,
      "Mad": 1767,
      "ane": 1768,
      "ench": 1769,
      "atur": 1770,
      "lead": 1771,
      "street": 1772,
      "riend": 1773,
      "roll": 1774,
      "nobody": 1775,
      "bother": 1776,
      "main": 1777,
      "ield": 1778,
      "quick": 1779,
      "Forget": 1780,
      "handle": 1781,
      "children": 1782,
      "Brian": 1783,
      "'.<|": 1784,
      "Doo": 1785,
      "Ed": 1786,
      "Huh": 1787,
      "Ind": 1788,
      "Put": 1789,
      "burn": 1790,
      "ective": 1791,
      "gre": 1792,
      "plo": 1793,
      "vin": 1794,
      "ino": 1795,
      "also": 1796,
      "stru": 1797,
      "oose": 1798,
      "outta": 1799,
      "outside": 1800,
      "cold": 1801,
      "between": 1802,
      "ches": 1803,
      "Frances": 1804,
      "deser": 1805,
      "Cole": 1806,
      "system": 1807,
      "invol": 1808,
      "Majesty": 1809,
      "Robins": 1810,
      "Big": 1811,
      "King": 1812,
      "Lea": 1813,
      "Mart": 1814,
      "bas": 1815,
      "cli": 1816,
      "gn": 1817,
      "piss": 1818,
      "slow": 1819,
      "vious": 1820,
      "asshole": 1821,
      "otect": 1822,
      "state": 1823,
      "...?<|": 1824,
      "weird": 1825,
      "ama": 1826,
      "mach": 1827,
      "excit": 1828,
      "itting": 1829,
      "imme": 1830,
      "write": 1831,
      "prof": 1832,
      "clock": 1833,
      "broke": 1834,
      "honor": 1835,
      "learn": 1836,
      "consider": 1837,
      "solutely": 1838,
      "!!<|": 1839,
      "..<|": 1840,
      "Aust": 1841,
      "Make": 1842,
      "Over": 1843,
      "Qu": 1844,
      "Sen": 1845,
      "creat": 1846,
      "ee": 1847,
      "nut": 1848,
      "phi": 1849,
      "smo": 1850,
      "squ": 1851,
      "wake": 1852,
      "using": 1853,
      "atta": 1854,
      "ots": 1855,
      "stick": 1856,
      "likes": 1857,
      "Weir": 1858,
      "roy": 1859,
      "thinks": 1860,
      "bley": 1861,
      "smart": 1862,
      "swear": 1863,
      "sweet": 1864,
      "surpr": 1865,
      "hotel": 1866,
      "',": 1867,
      "Cong": 1868,
      "Fred": 1869,
      "War": 1870,
      "cess": 1871,
      "mouth": 1872,
      "ency": 1873,
      "ists": 1874,
      "offee": 1875,
      "board": 1876,
      "gram": 1877,
      "ciate": 1878,
      "return": 1879,
      "Peter": 1880,
      "quiet": 1881,
      "completely": 1882,
      "Dickson": 1883,
      "Robinson": 1884,
      "Act": 1885,
      "Ber": 1886,
      "From": 1887,
      "IT": 1888,
      "Pa": 1889,
      "bast": 1890,
      "catch": 1891,
      "gar": 1892,
      "gro": 1893,
      "ile": 1894,
      "ient": 1895,
      "ler": 1896,
      "sed": 1897,
      "tin": 1898,
      "vic": 1899,
      "anz": 1900,
      "ended": 1901,
      "vest": 1902,
      "doin": 1903,
      "Whatever": 1904,
      "cannot": 1905,
      "terday": 1906,
      "rap": 1907,
      "rage": 1908,
      "feet": 1909,
      "felt": 1910,
      "looked": 1911,
      "spend": 1912,
      "hasn": 1913,
      "grow": 1914,
      "ground": 1915,
      "dies": 1916,
      "Reed": 1917,
      "finite": 1918,
      "More": 1919,
      "appre": 1920,
      "strange": 1921,
      "entire": 1922,
      "Step": 1923,
      "German": 1924,
      "hospital": 1925,
      "Austin": 1926,
      "Cle": 1927,
      "Evan": 1928,
      "bomb": 1929,
      "cat": 1930,
      "eh": 1931,
      "iam": 1932,
      "ls": 1933,
      "occ": 1934,
      "pur": 1935,
      "meant": 1936,
      "sell": 1937,
      "stair": 1938,
      "ford": 1939,
      "hop": 1940,
      "sometimes": 1941,
      "ions": 1942,
      "tele": 1943,
      "pping": 1944,
      "ules": 1945,
      "killing": 1946,
      "happening": 1947,
      "lau": 1948,
      "drug": 1949,
      "drunk": 1950,
      "Jesse": 1951,
      "paid": 1952,
      "visit": 1953,
      "company": 1954,
      "ashing": 1955,
      "English": 1956,
      "music": 1957,
      "responsi": 1958,
      "Keep": 1959,
      "touch": 1960,
      "Paul": 1961,
      "19": 1962,
      "Alice": 1963,
      "Besides": 1964,
      "Cas": 1965,
      "Even": 1966,
      "Gen": 1967,
      "Tre": 1968,
      "apo": 1969,
      "card": 1970,
      "ky": 1971,
      "lunch": 1972,
      "mp": 1973,
      "nine": 1974,
      "pack": 1975,
      "enjoy": 1976,
      "ond": 1977,
      "ature": 1978,
      "become": 1979,
      "andy": 1980,
      "idence": 1981,
      "allow": 1982,
      "ney": 1983,
      "fell": 1984,
      "seeing": 1985,
      "sake": 1986,
      "others": 1987,
      "stopped": 1988,
      "ments": 1989,
      "evening": 1990,
      "careful": 1991,
      "respect": 1992,
      "lives": 1993,
      "join": 1994,
      "personal": 1995,
      "questions": 1996,
      "view": 1997,
      "choice": 1998,
      "Perhaps": 1999,
      "American": 2000,
      "certainly": 2001,
      "middle": 2002,
      "Eve": 2003,
      "ME": 2004,
      "Mary": 2005,
      "Out": 2006,
      "Sp": 2007,
      "Ser": 2008,
      "bust": 2009,
      "cas": 2010,
      "ctic": 2011,
      "field": 2012,
      "kin": 2013,
      "mir": 2014,
      "sw": 2015,
      "vate": 2016,
      "ities": 2017,
      "arch": 2018,
      "weather": 2019,
      "anywhere": 2020,
      "deli": 2021,
      "gue": 2022,
      "impress": 2023,
      "perhaps": 2024,
      "calling": 2025,
      "protect": 2026,
      "ames": 2027,
      "Aren": 2028,
      "wonderful": 2029,
      "laugh": 2030,
      "Adam": 2031,
      "Che": 2032,
      "Det": 2033,
      "La": 2034,
      "Prey": 2035,
      "Try": 2036,
      "dark": 2037,
      "eg": 2038,
      "fill": 2039,
      "lit": 2040,
      "ude": 2041,
      "whe": 2042,
      "ym": 2043,
      "orrow": 2044,
      "idge": 2045,
      "ets": 2046,
      "ette": 2047,
      "forgive": 2048,
      "ife": 2049,
      "taken": 2050,
      "moving": 2051,
      "Three": 2052,
      "poor": 2053,
      "ics": 2054,
      "ically": 2055,
      "save": 2056,
      "fucked": 2057,
      "busy": 2058,
      "French": 2059,
      "problems": 2060,
      "situation": 2061,
      "born": 2062,
      "Dana": 2063,
      "simple": 2064,
      "Doolittle": 2065,
      "Stephen": 2066,
      "apolog": 2067,
      "Preysing": 2068,
      "Cor": 2069,
      "Cal": 2070,
      "Jake": 2071,
      "James": 2072,
      "Lou": 2073,
      "Las": 2074,
      "Nick": 2075,
      "ST": 2076,
      "ale": 2077,
      "hist": 2078,
      "kiss": 2079,
      "ran": 2080,
      "era": 2081,
      "mell": 2082,
      "hes": 2083,
      "liked": 2084,
      "boss": 2085,
      "agree": 2086,
      "hero": 2087,
      "truck": 2088,
      "appoint": 2089,
      "kinda": 2090,
      "finally": 2091,
      "finish": 2092,
      "finished": 2093,
      "Excell": 2094,
      "seconds": 2095,
      "honest": 2096,
      "Guess": 2097,
      "pleasure": 2098,
      "involved": 2099,
      "Actually": 2100,
      "stairs": 2101,
      "Ab": 2102,
      "GO": 2103,
      "Kring": 2104,
      "pra": 2105,
      "tur": 2106,
      "treat": 2107,
      "vous": 2108,
      "org": 2109,
      "arling": 2110,
      "beg": 2111,
      "ham": 2112,
      "uture": 2113,
      "wire": 2114,
      "ablan": 2115,
      "tee": 2116,
      "ica": 2117,
      "extra": 2118,
      "excuse": 2119,
      "cops": 2120,
      "lfriend": 2121,
      "percent": 2122,
      "Someone": 2123,
      "Anything": 2124,
      "Brit": 2125,
      "wondering": 2126,
      "difference": 2127,
      "watching": 2128,
      "sounds": 2129,
      "elein": 2130,
      "freak": 2131,
      "bbie": 2132,
      "Leave": 2133,
      "Casablan": 2134,
      "Kringelein": 2135,
      "Casablanca": 2136,
      "'?<|": 2137,
      "HAT": 2138,
      "Lord": 2139,
      "NO": 2140,
      "Rus": 2141,
      "Sim": 2142,
      "Twom": 2143,
      "Were": 2144,
      "ax": 2145,
      "bucks": 2146,
      "cred": 2147,
      "cross": 2148,
      "hood": 2149,
      "ied": 2150,
      "ium": 2151,
      "wit": 2152,
      "ero": 2153,
      "thony": 2154,
      "arr": 2155,
      "ided": 2156,
      "uten": 2157,
      "rope": 2158,
      "tern": 2159,
      "deep": 2160,
      "ages": 2161,
      "Looks": 2162,
      "suit": 2163,
      "Char": 2164,
      "Debbie": 2165,
      "Everybody": 2166,
      "Anthony": 2167,
      "stead": 2168,
      "Black": 2169,
      "brain": 2170,
      "Rich": 2171,
      "selves": 2172,
      "Dunbar": 2173,
      "dangerous": 2174,
      "bastard": 2175,
      "finitely": 2176,
      "General": 2177,
      "Twombley": 2178,
      "App": 2179,
      "Bet": 2180,
      "Has": 2181,
      "Jam": 2182,
      "Jason": 2183,
      "Sit": 2184,
      "cir": 2185,
      "dig": 2186,
      "fish": 2187,
      "ip": 2188,
      "kick": 2189,
      "ted": 2190,
      "vies": 2191,
      "vol": 2192,
      "wise": 2193,
      "ertain": 2194,
      "ats": 2195,
      "reco": 2196,
      "lex": 2197,
      "station": 2198,
      "neigh": 2199,
      "irth": 2200,
      "quar": 2201,
      "action": 2202,
      "accept": 2203,
      "obvious": 2204,
      "early": 2205,
      "girlfriend": 2206,
      "super": 2207,
      "marry": 2208,
      "ticket": 2209,
      "joke": 2210,
      "appro": 2211,
      "special": 2212,
      "fully": 2213,
      "Chief": 2214,
      "Tomorrow": 2215,
      "fifteen": 2216,
      "giving": 2217,
      "floor": 2218,
      "appreciate": 2219,
      "Afri": 2220,
      "ER": 2221,
      "Gor": 2222,
      "Hard": 2223,
      "Last": 2224,
      "Mi": 2225,
      "Min": 2226,
      "Mons": 2227,
      "Mark": 2228,
      "Pri": 2229,
      "Rome": 2230,
      "Show": 2231,
      "Str": 2232,
      "cur": 2233,
      "cash": 2234,
      "coffee": 2235,
      "dun": 2236,
      "ged": 2237,
      "ses": 2238,
      "spo": 2239,
      "suck": 2240,
      "tle": 2241,
      "wen": 2242,
      "ered": 2243,
      "inform": 2244,
      "reme": 2245,
      "belong": 2246,
      "lds": 2247,
      "rip": 2248,
      "terrible": 2249,
      "caught": 2250,
      "ulous": 2251,
      "ieur": 2252,
      "foot": 2253,
      "store": 2254,
      "Goodnight": 2255,
      "puter": 2256,
      "track": 2257,
      "mention": 2258,
      "Roger": 2259,
      "William": 2260,
      "cuss": 2261,
      "ublic": 2262,
      "hung": 2263,
      "accident": 2264,
      "Damn": 2265,
      "Russi": 2266,
      "utenant": 2267,
      "neighbor": 2268,
      "\"?<|": 2269,
      "Gary": 2270,
      "Jan": 2271,
      "Mic": 2272,
      "Next": 2273,
      "THE": 2274,
      "fit": 2275,
      "gs": 2276,
      "hum": 2277,
      "len": 2278,
      "ray": 2279,
      "rules": 2280,
      "sn": 2281,
      "sive": 2282,
      "table": 2283,
      "va": 2284,
      "yer": 2285,
      "oub": 2286,
      "third": 2287,
      "owe": 2288,
      "alent": 2289,
      "rik": 2290,
      "abo": 2291,
      "host": 2292,
      "upset": 2293,
      "movies": 2294,
      "tem": 2295,
      "worried": 2296,
      "plac": 2297,
      "except": 2298,
      "dying": 2299,
      "col": 2300,
      "space": 2301,
      "letters": 2302,
      "direct": 2303,
      "service": 2304,
      "Should": 2305,
      "Stay": 2306,
      "glass": 2307,
      "ized": 2308,
      "share": 2309,
      "hurry": 2310,
      "strong": 2311,
      "paper": 2312,
      "Mommy": 2313,
      "Tommy": 2314,
      "Love": 2315,
      "America": 2316,
      "welcome": 2317,
      "film": 2318,
      "officer": 2319,
      "window": 2320,
      "mistake": 2321,
      "Martin": 2322,
      "Treves": 2323,
      "British": 2324,
      "Monsieur": 2325,
      "dunno": 2326,
      "?...": 2327,
      "Gre": 2328,
      "Hor": 2329,
      "Ham": 2330,
      "Hmm": 2331,
      "Kend": 2332,
      "Mc": 2333,
      "Mant": 2334,
      "Sounds": 2335,
      "base": 2336,
      "dumb": 2337,
      "fing": 2338,
      "kno": 2339,
      "mb": 2340,
      "od": 2341,
      "ration": 2342,
      "vir": 2343,
      "zlo": 2344,
      "ering": 2345,
      "invest": 2346,
      "ater": 2347,
      "rece": 2348,
      "ese": 2349,
      "step": 2350,
      "rich": 2351,
      "eace": 2352,
      "takes": 2353,
      "box": 2354,
      "cost": 2355,
      "earth": 2356,
      "yesterday": 2357,
      "hello": 2358,
      "crap": 2359,
      "Most": 2360,
      "nervous": 2361,
      "interesting": 2362,
      "turned": 2363,
      "fighting": 2364,
      "dreams": 2365,
      "given": 2366,
      "wearing": 2367,
      "radio": 2368,
      "colle": 2369,
      "psych": 2370,
      "building": 2371,
      "Laszlo": 2372,
      "Ad": 2373,
      "Alex": 2374,
      "Hen": 2375,
      "Time": 2376,
      "Wade": 2377,
      "bon": 2378,
      "bill": 2379,
      "cig": 2380,
      "cous": 2381,
      "fan": 2382,
      "fli": 2383,
      "list": 2384,
      "pal": 2385,
      "sou": 2386,
      "sum": 2387,
      "smell": 2388,
      "uff": 2389,
      "asy": 2390,
      "ined": 2391,
      "ref": 2392,
      "ald": 2393,
      "goin": 2394,
      "tim": 2395,
      "aged": 2396,
      "pop": 2397,
      "ilt": 2398,
      "comfort": 2399,
      "fail": 2400,
      "talkin": 2401,
      "acti": 2402,
      "present": 2403,
      "reading": 2404,
      "grad": 2405,
      "Goodbye": 2406,
      "uell": 2407,
      "acting": 2408,
      "Sometimes": 2409,
      "Seym": 2410,
      "boyfriend": 2411,
      "disappe": 2412,
      "Neil": 2413,
      "Anyway": 2414,
      "gged": 2415,
      "avy": 2416,
      "single": 2417,
      "possib": 2418,
      "holding": 2419,
      "trip": 2420,
      "eye": 2421,
      "draw": 2422,
      "Merrick": 2423,
      "suspect": 2424,
      "destroy": 2425,
      "Congress": 2426,
      "information": 2427,
      "Seymour": 2428,
      "EE": 2429,
      "Matt": 2430,
      "Still": 2431,
      "Ski": 2432,
      "Twenty": 2433,
      "Wh": 2434,
      "Wo": 2435,
      "Wor": 2436,
      "Wow": 2437,
      "ai": 2438,
      "cry": 2439,
      "dat": 2440,
      "dry": 2441,
      "evil": 2442,
      "sat": 2443,
      "spl": 2444,
      "uc": 2445,
      "uz": 2446,
      "vide": 2447,
      "zen": 2448,
      "mes": 2449,
      "iting": 2450,
      "sea": 2451,
      "iday": 2452,
      "ety": 2453,
      "weap": 2454,
      "wice": 2455,
      "onel": 2456,
      "hir": 2457,
      "load": 2458,
      "urch": 2459,
      "guard": 2460,
      "produ": 2461,
      "fol": 2462,
      "emp": 2463,
      "longer": 2464,
      "sugg": 2465,
      "cially": 2466,
      "guns": 2467,
      "gency": 2468,
      "voice": 2469,
      "decis": 2470,
      "England": 2471,
      "relation": 2472,
      "imagine": 2473,
      "Louis": 2474,
      "Milo": 2475,
      "Henry": 2476,
      "20": 2477,
      "Bull": 2478,
      "DO": 2479,
      "Jim": 2480,
      "Must": 2481,
      "Six": 2482,
      "TV": 2483,
      "Van": 2484,
      "aking": 2485,
      "bri": 2486,
      "birth": 2487,
      "cum": 2488,
      "dden": 2489,
      "doub": 2490,
      "fly": 2491,
      "gy": 2492,
      "gif": 2493,
      "gain": 2494,
      "iot": 2495,
      "ians": 2496,
      "iled": 2497,
      "jor": 2498,
      "kn": 2499,
      "mas": 2500,
      "nin": 2501,
      "public": 2502,
      "round": 2503,
      "sli": 2504,
      "sun": 2505,
      "silly": 2506,
      "trick": 2507,
      "enk": 2508,
      "enna": 2509,
      "lly": 2510,
      "ari": 2511,
      "beer": 2512,
      "liz": 2513,
      "ution": 2514,
      "adv": 2515,
      "gold": 2516,
      "somethin": 2517,
      "loan": 2518,
      "moon": 2519,
      "team": 2520,
      "cted": 2521,
      "boat": 2522,
      "iced": 2523,
      "saved": 2524,
      "ured": 2525,
      "conne": 2526,
      "ational": 2527,
      "prove": 2528,
      "proper": 2529,
      "across": 2530,
      "account": 2531,
      "apers": 2532,
      "loves": 2533,
      "travel": 2534,
      "partment": 2535,
      "suff": 2536,
      "throom": 2537,
      "famili": 2538,
      "farm": 2539,
      "picked": 2540,
      "charge": 2541,
      "private": 2542,
      "attle": 2543,
      "risk": 2544,
      "normal": 2545,
      "?\"<|": 2546,
      "memory": 2547,
      "white": 2548,
      "excited": 2549,
      "\".<|": 2550,
      "50": 2551,
      "AR": 2552,
      "Aw": 2553,
      "Bill": 2554,
      "Best": 2555,
      "Fe": 2556,
      "Five": 2557,
      "Fire": 2558,
      "Hot": 2559,
      "Long": 2560,
      "Mister": 2561,
      "Won": 2562,
      "Watch": 2563,
      "bunch": 2564,
      "cow": 2565,
      "crow": 2566,
      "dick": 2567,
      "egg": 2568,
      "fat": 2569,
      "flight": 2570,
      "future": 2571,
      "hook": 2572,
      "mot": 2573,
      "natur": 2574,
      "pig": 2575,
      "rup": 2576,
      "twice": 2577,
      "vac": 2578,
      "ism": 2579,
      "aste": 2580,
      "asleep": 2581,
      "ends": 2582,
      "ending": 2583,
      "atten": 2584,
      "ited": 2585,
      "ors": 2586,
      "arrest": 2587,
      "ley": 2588,
      "search": 2589,
      "ooper": 2590,
      "fear": 2591,
      "fac": 2592,
      "Donnie": 2593,
      "killer": 2594,
      "emer": 2595,
      "blame": 2596,
      "sudden": 2597,
      "Joel": 2598,
      "realize": 2599,
      "discuss": 2600,
      "Exactly": 2601,
      "shoes": 2602,
      "Always": 2603,
      "spec": 2604,
      "vision": 2605,
      "listening": 2606,
      "Boy": 2607,
      "correct": 2608,
      "lines": 2609,
      "keys": 2610,
      "horse": 2611,
      "Doesn": 2612,
      "figured": 2613,
      "ING": 2614,
      "Half": 2615,
      "miles": 2616,
      "Paris": 2617,
      "Smith": 2618,
      "history": 2619,
      "recogn": 2620,
      "'.": 2621,
      "Air": 2622,
      "Back": 2623,
      "Em": 2624,
      "Fin": 2625,
      "Fif": 2626,
      "Ganz": 2627,
      "Li": 2628,
      "Lie": 2629,
      "Lilly": 2630,
      "Mur": 2631,
      "Mama": 2632,
      "Pow": 2633,
      "Too": 2634,
      "Turn": 2635,
      "Thir": 2636,
      "Venk": 2637,
      "bought": 2638,
      "due": 2639,
      "ez": 2640,
      "fant": 2641,
      "gest": 2642,
      "itor": 2643,
      "je": 2644,
      "jail": 2645,
      "lu": 2646,
      "none": 2647,
      "os": 2648,
      "pot": 2649,
      "pair": 2650,
      "peace": 2651,
      "ron": 2652,
      "sad": 2653,
      "ues": 2654,
      "ina": 2655,
      "aly": 2656,
      "stone": 2657,
      "rious": 2658,
      "riage": 2659,
      "ties": 2660,
      "tight": 2661,
      "neck": 2662,
      "unless": 2663,
      "nothin": 2664,
      "willing": 2665,
      "itted": 2666,
      "talked": 2667,
      "trans": 2668,
      "calls": 2669,
      "aff": 2670,
      "apa": 2671,
      "bud": 2672,
      "diately": 2673,
      "intro": 2674,
      "serv": 2675,
      "serve": 2676,
      "size": 2677,
      "condition": 2678,
      "awful": 2679,
      "custo": 2680,
      "Guy": 2681,
      "!!!<|": 2682,
      "ridic": 2683,
      "bathroom": 2684,
      "welve": 2685,
      "beginning": 2686,
      "Colonel": 2687,
      "attack": 2688,
      "Excellency": 2689,
      "Better": 2690,
      "Kendall": 2691,
      "Mantan": 2692,
      "doubt": 2693,
      "attention": 2694,
      "Venkman": 2695,
      "!?<|": 2696,
      "\"<|": 2697,
      "Evil": 2698,
      "Il": 2699,
      "Made": 2700,
      "Shall": 2701,
      "Washing": 2702,
      "cab": 2703,
      "cket": 2704,
      "fle": 2705,
      "gam": 2706,
      "mut": 2707,
      "net": 2708,
      "ners": 2709,
      "pus": 2710,
      "ply": 2711,
      "rent": 2712,
      "sof": 2713,
      "song": 2714,
      "vy": 2715,
      "vill": 2716,
      "zing": 2717,
      "ened": 2718,
      "atul": 2719,
      "aring": 2720,
      "idiot": 2721,
      "kept": 2722,
      "stit": 2723,
      "area": 2724,
      "necess": 2725,
      "noticed": 2726,
      "rob": 2727,
      "moved": 2728,
      "uring": 2729,
      "dem": 2730,
      "definitely": 2731,
      "department": 2732,
      "ico": 2733,
      "male": 2734,
      "explo": 2735,
      "computer": 2736,
      "program": 2737,
      "letter": 2738,
      "ache": 2739,
      "Before": 2740,
      "fied": 2741,
      "insane": 2742,
      "putting": 2743,
      "bridge": 2744,
      "partner": 2745,
      "Josh": 2746,
      "cious": 2747,
      "orders": 2748,
      "broken": 2749,
      "Max": 2750,
      "Harold": 2751,
      "hardly": 2752,
      "gener": 2753,
      "effect": 2754,
      "decided": 2755,
      "screw": 2756,
      "pulled": 2757,
      "Probably": 2758,
      "experience": 2759,
      "Scott": 2760,
      "Eddie": 2761,
      "pissed": 2762,
      "machine": 2763,
      "profession": 2764,
      "Detective": 2765,
      "hungry": 2766,
      "Skipper": 2767,
      "Wolf": 2768,
      "relationship": 2769,
      "introdu": 2770,
      "Washington": 2771,
      ",\"": 2772,
      "Cour": 2773,
      "Erik": 2774,
      "Kr": 2775,
      "Mike": 2776,
      "Muell": 2777,
      "Owen": 2778,
      "Rose": 2779,
      "Wally": 2780,
      "bat": 2781,
      "ev": 2782,
      "flow": 2783,
      "ging": 2784,
      "jud": 2785,
      "oid": 2786,
      "othy": 2787,
      "pup": 2788,
      "rass": 2789,
      "sitting": 2790,
      "tea": 2791,
      "twelve": 2792,
      "uel": 2793,
      "wis": 2794,
      "thor": 2795,
      "astic": 2796,
      "instead": 2797,
      "atic": 2798,
      "rem": 2799,
      "regu": 2800,
      "remind": 2801,
      "itive": 2802,
      "heal": 2803,
      "arc": 2804,
      "hael": 2805,
      "forward": 2806,
      "chick": 2807,
      "ung": 2808,
      "iff": 2809,
      "rail": 2810,
      "urance": 2811,
      "icide": 2812,
      "igg": 2813,
      "qual": 2814,
      "imp": 2815,
      "impossible": 2816,
      "needed": 2817,
      "peror": 2818,
      "pres": 2819,
      "scare": 2820,
      "science": 2821,
      "embar": 2822,
      "Believe": 2823,
      "wrote": 2824,
      "mark": 2825,
      "lots": 2826,
      "opin": 2827,
      "missed": 2828,
      "ticular": 2829,
      "Dead": 2830,
      "viol": 2831,
      "locked": 2832,
      "commit": 2833,
      "fortun": 2834,
      "message": 2835,
      "Major": 2836,
      "phys": 2837,
      "uniform": 2838,
      ".'<|": 2839,
      "Dorothy": 2840,
      "surprised": 2841,
      "Africa": 2842,
      "Michael": 2843,
      "Bullshit": 2844,
      "ridiculous": 2845,
      "Mueller": 2846,
      "embarrass": 2847,
      "CK": 2848,
      "Cli": 2849,
      "Far": 2850,
      "Fed": 2851,
      "Mon": 2852,
      "Na": 2853,
      "Nah": 2854,
      "Other": 2855,
      "Ron": 2856,
      "San": 2857,
      "Son": 2858,
      "Since": 2859,
      "bility": 2860,
      "cook": 2861,
      "cru": 2862,
      "ech": 2863,
      "gative": 2864,
      "hid": 2865,
      "hide": 2866,
      "jack": 2867,
      "lcome": 2868,
      "ming": 2869,
      "non": 2870,
      "nes": 2871,
      "pic": 2872,
      "pil": 2873,
      "push": 2874,
      "sis": 2875,
      "tit": 2876,
      "tes": 2877,
      "talent": 2878,
      "ume": 2879,
      "vive": 2880,
      "vity": 2881,
      "yell": 2882,
      "|>-": 2883,
      "threat": 2884,
      "ines": 2885,
      "....": 2886,
      "stri": 2887,
      "lig": 2888,
      "ady": 2889,
      "Welcome": 2890,
      "nel": 2891,
      "hoto": 2892,
      "Help": 2893,
      "lob": 2894,
      "tact": 2895,
      "tape": 2896,
      "taught": 2897,
      "rain": 2898,
      "noon": 2899,
      "nold": 2900,
      "nother": 2901,
      "fellow": 2902,
      "major": 2903,
      "essed": 2904,
      "cape": 2905,
      "conv": 2906,
      "ief": 2907,
      "bert": 2908,
      "type": 2909,
      "wolf": 2910,
      "blue": 2911,
      "forever": 2912,
      "ffic": 2913,
      "built": 2914,
      "insurance": 2915,
      "Joe": 2916,
      "shir": 2917,
      "shows": 2918,
      "disappoint": 2919,
      "Stan": 2920,
      "missing": 2921,
      "particular": 2922,
      "Arnold": 2923,
      "Christmas": 2924,
      "contin": 2925,
      "steal": 2926,
      "price": 2927,
      "lawyer": 2928,
      "patient": 2929,
      "radi": 2930,
      "records": 2931,
      "murdered": 2932,
      "changed": 2933,
      "North": 2934,
      "gentlemen": 2935,
      "Madam": 2936,
      "immediately": 2937,
      "creature": 2938,
      "nuts": 2939,
      "apologize": 2940,
      "Absolutely": 2941,
      "arrange": 2942,
      "Charlie": 2943,
      "Richard": 2944,
      "finger": 2945,
      "decision": 2946,
      "necessary": 2947,
      "AM": 2948,
      "Another": 2949,
      "ED": 2950,
      "Hon": 2951,
      "Mex": 2952,
      "Open": 2953,
      "Pl": 2954,
      "Pike": 2955,
      "Sal": 2956,
      "Same": 2957,
      "Wick": 2958,
      "WHAT": 2959,
      "awhile": 2960,
      "ethe": 2961,
      "ior": 2962,
      "kne": 2963,
      "ption": 2964,
      "rate": 2965,
      "sne": 2966,
      "tw": 2967,
      "erk": 2968,
      "eno": 2969,
      "usual": 2970,
      "attra": 2971,
      "thetic": 2972,
      "sevent": 2973,
      "ston": 2974,
      "lies": 2975,
      "uty": 2976,
      "force": 2977,
      "advice": 2978,
      "absolutely": 2979,
      "enty": 2980,
      "mob": 2981,
      "bodies": 2982,
      "seemed": 2983,
      "color": 2984,
      "prep": 2985,
      "stor": 2986,
      "Justin": 2987,
      "Been": 2988,
      "standing": 2989,
      "closed": 2990,
      "shower": 2991,
      "ordin": 2992,
      "crack": 2993,
      "ference": 2994,
      "function": 2995,
      "design": 2996,
      "medic": 2997,
      "Christian": 2998,
      "checked": 2999,
      "ladies": 3000,
      "chair": 3001,
      "Bobo": 3002,
      "Poor": 3003,
      "crime": 3004,
      "learned": 3005,
      "Clark": 3006,
      "Grand": 3007,
      "training": 3008,
      "langu": 3009,
      "camera": 3010,
      "ount": 3011,
      "Vienna": 3012,
      "memories": 3013,
      "wedding": 3014,
      "occur": 3015,
      "responsible": 3016,
      "deliver": 3017,
      "teeth": 3018,
      "Russian": 3019,
      "investig": 3020,
      "cousin": 3021,
      "familiar": 3022,
      "natural": 3023,
      "opinion": 3024,
      "etheart": 3025,
      "Cy": 3026,
      "Certain": 3027,
      "Du": 3028,
      "Dep": 3029,
      "Fo": 3030,
      "Honey": 3031,
      "Haven": 3032,
      "Lis": 3033,
      "Laz": 3034,
      "SH": 3035,
      "Sup": 3036,
      "Spe": 3037,
      "Und": 3038,
      "Wil": 3039,
      "danc": 3040,
      "darling": 3041,
      "fro": 3042,
      "ju": 3043,
      "pill": 3044,
      "photo": 3045,
      "ror": 3046,
      "rot": 3047,
      "sco": 3048,
      "tough": 3049,
      "taste": 3050,
      "ule": 3051,
      "ena": 3052,
      "assign": 3053,
      "escape": 3054,
      "level": 3055,
      "bey": 3056,
      "belie": 3057,
      "cking": 3058,
      "uts": 3059,
      "...?": 3060,
      "aret": 3061,
      "note": 3062,
      "holes": 3063,
      "ently": 3064,
      "somehow": 3065,
      "terri": 3066,
      "gotten": 3067,
      "tap": 3068,
      "race": 3069,
      "tech": 3070,
      "ours": 3071,
      "def": 3072,
      "ager": 3073,
      "polit": 3074,
      "sail": 3075,
      "plans": 3076,
      "herself": 3077,
      "exist": 3078,
      "blew": 3079,
      "fucker": 3080,
      "stole": 3081,
      "scene": 3082,
      "grou": 3083,
      "Gods": 3084,
      "Goddamn": 3085,
      "older": 3086,
      "akes": 3087,
      "career": 3088,
      "pray": 3089,
      "prison": 3090,
      "marriage": 3091,
      "Joey": 3092,
      "Somebody": 3093,
      "greatest": 3094,
      "Negro": 3095,
      "Everyone": 3096,
      "Army": 3097,
      "drinking": 3098,
      "sweetheart": 3099,
      "path": 3100,
      "Brad": 3101,
      "Lee": 3102,
      "promised": 3103,
      "command": 3104,
      "shooting": 3105,
      "000": 3106,
      "elect": 3107,
      "simply": 3108,
      "scream": 3109,
      "pictures": 3110,
      "favorite": 3111,
      "concerned": 3112,
      "quickly": 3113,
      "burned": 3114,
      "Senator": 3115,
      "organ": 3116,
      "places": 3117,
      "summer": 3118,
      "emergency": 3119,
      "Lieutenant": 3120,
      "'<|": 3121,
      "Eight": 3122,
      "Hand": 3123,
      "KI": 3124,
      "LE": 3125,
      "Naw": 3126,
      "Rain": 3127,
      "Ten": 3128,
      "Tal": 3129,
      "Tru": 3130,
      "Um": 3131,
      "Wall": 3132,
      "cise": 3133,
      "dump": 3134,
      "fy": 3135,
      "fur": 3136,
      "ges": 3137,
      "ilet": 3138,
      "ka": 3139,
      "lord": 3140,
      "nal": 3141,
      "ost": 3142,
      "ped": 3143,
      "sle": 3144,
      "swi": 3145,
      "sil": 3146,
      "yle": 3147,
      "anim": 3148,
      "rela": 3149,
      "admit": 3150,
      "tie": 3151,
      "gettin": 3152,
      "amaz": 3153,
      "los": 3154,
      "loy": 3155,
      "mode": 3156,
      "iller": 3157,
      "worst": 3158,
      "deed": 3159,
      "ils": 3160,
      "tells": 3161,
      "coat": 3162,
      "spent": 3163,
      "sport": 3164,
      "Island": 3165,
      "gives": 3166,
      "grade": 3167,
      "writing": 3168,
      "angry": 3169,
      "fired": 3170,
      "feels": 3171,
      "keeping": 3172,
      "match": 3173,
      "biggest": 3174,
      "afternoon": 3175,
      "Star": 3176,
      "shop": 3177,
      "breath": 3178,
      "awake": 3179,
      "cute": 3180,
      "famous": 3181,
      "walked": 3182,
      "survive": 3183,
      "complic": 3184,
      "ledge": 3185,
      "uddy": 3186,
      "sym": 3187,
      "detail": 3188,
      "detective": 3189,
      "ential": 3190,
      "ski": 3191,
      "bath": 3192,
      "Holy": 3193,
      "Luther": 3194,
      "covered": 3195,
      "gentleman": 3196,
      "Indian": 3197,
      "casino": 3198,
      "practic": 3199,
      "credit": 3200,
      "witness": 3201,
      "Gordon": 3202,
      "Price": 3203,
      "comfortable": 3204,
      "suggest": 3205,
      "gift": 3206,
      "knife": 3207,
      "pilot": 3208,
      "Certainly": 3209,
      "Talby": 3210,
      "relax": 3211,
      "??": 3212,
      "Bate": 3213,
      "Cad": 3214,
      "Eu": 3215,
      "Fre": 3216,
      "Find": 3217,
      "Gir": 3218,
      "Hu": 3219,
      "Home": 3220,
      "Haw": 3221,
      "Ich": 3222,
      "Lon": 3223,
      "NA": 3224,
      "Narc": 3225,
      "Phi": 3226,
      "Rel": 3227,
      "Sta": 3228,
      "Ter": 3229,
      "Up": 3230,
      "VE": 3231,
      "Want": 3232,
      "ado": 3233,
      "bow": 3234,
      "cul": 3235,
      "cast": 3236,
      "ds": 3237,
      "dge": 3238,
      "duty": 3239,
      "gress": 3240,
      "jump": 3241,
      "klin": 3242,
      "pher": 3243,
      "page": 3244,
      "sour": 3245,
      "sca": 3246,
      "wood": 3247,
      "wards": 3248,
      "ination": 3249,
      "itary": 3250,
      "hey": 3251,
      "heavy": 3252,
      "armed": 3253,
      "otion": 3254,
      "seat": 3255,
      "oop": 3256,
      "church": 3257,
      "hip": 3258,
      "waste": 3259,
      "amb": 3260,
      "unity": 3261,
      "mod": 3262,
      "dep": 3263,
      "sayin": 3264,
      "Soon": 3265,
      "bleed": 3266,
      "stories": 3267,
      "lovely": 3268,
      "issus": 3269,
      "chester": 3270,
      "bles": 3271,
      "finds": 3272,
      "named": 3273,
      "monster": 3274,
      "elle": 3275,
      "showing": 3276,
      "watched": 3277,
      "planet": 3278,
      "gging": 3279,
      "personally": 3280,
      "Ask": 3281,
      "Johnny": 3282,
      "speech": 3283,
      "easier": 3284,
      "Enid": 3285,
      "breakfast": 3286,
      "sooner": 3287,
      "Manchester": 3288,
      "stein": 3289,
      "expecting": 3290,
      "Unless": 3291,
      "Blue": 3292,
      "fresh": 3293,
      "decide": 3294,
      "Conklin": 3295,
      "curious": 3296,
      "large": 3297,
      "Berlin": 3298,
      "hoping": 3299,
      "responsibility": 3300,
      "Serge": 3301,
      "neighborhood": 3302,
      "cigaret": 3303,
      "possibly": 3304,
      "folks": 3305,
      "professional": 3306,
      "Court": 3307,
      "language": 3308,
      "Under": 3309,
      "group": 3310,
      "Bateman": 3311,
      "Narcissus": 3312,
      "!...": 3313,
      "Au": 3314,
      "Ain": 3315,
      "Bea": 3316,
      "Bour": 3317,
      "Cam": 3318,
      "Cla": 3319,
      "Cool": 3320,
      "Dire": 3321,
      "Fla": 3322,
      "GE": 3323,
      "HO": 3324,
      "Hur": 3325,
      "Jord": 3326,
      "Know": 3327,
      "Kill": 3328,
      "Miller": 3329,
      "OR": 3330,
      "Pin": 3331,
      "Pret": 3332,
      "Sy": 3333,
      "Sleep": 3334,
      "Ton": 3335,
      "bott": 3336,
      "battle": 3337,
      "cate": 3338,
      "dent": 3339,
      "dise": 3340,
      "dirty": 3341,
      "fright": 3342,
      "ga": 3343,
      "gas": 3344,
      "gri": 3345,
      "ict": 3346,
      "nic": 3347,
      "nger": 3348,
      "oce": 3349,
      "pure": 3350,
      "rout": 3351,
      "sin": 3352,
      "tree": 3353,
      "ert": 3354,
      "enny": 3355,
      "ashed": 3356,
      "antic": 3357,
      "reas": 3358,
      "reach": 3359,
      "relig": 3360,
      "toilet": 3361,
      "orig": 3362,
      "esar": 3363,
      "stuck": 3364,
      "lier": 3365,
      "river": 3366,
      "address": 3367,
      "negot": 3368,
      "lyn": 3369,
      "likely": 3370,
      "loso": 3371,
      "Thought": 3372,
      "guest": 3373,
      "plenty": 3374,
      "romise": 3375,
      "concent": 3376,
      "convers": 3377,
      "exe": 3378,
      "itty": 3379,
      "itten": 3380,
      "everywhere": 3381,
      "afford": 3382,
      "surely": 3383,
      "dio": 3384,
      "dire": 3385,
      "divor": 3386,
      "insult": 3387,
      "trap": 3388,
      "court": 3389,
      "damage": 3390,
      "heads": 3391,
      "heading": 3392,
      "proud": 3393,
      "served": 3394,
      "carry": 3395,
      "study": 3396,
      "Stand": 3397,
      "staying": 3398,
      "planning": 3399,
      "airport": 3400,
      "Anyone": 3401,
      "Ang": 3402,
      "auto": 3403,
      "diffic": 3404,
      "lights": 3405,
      "Once": 3406,
      "warm": 3407,
      "boring": 3408,
      "driving": 3409,
      "doors": 3410,
      "Leo": 3411,
      "sixty": 3412,
      "Wouldn": 3413,
      "Marcus": 3414,
      "itchen": 3415,
      "crimin": 3416,
      "dollar": 3417,
      "freed": 3418,
      "engine": 3419,
      "dogs": 3420,
      "camp": 3421,
      "subject": 3422,
      "calm": 3423,
      "Caesar": 3424,
      "soldier": 3425,
      "Trust": 3426,
      "deserve": 3427,
      "Simon": 3428,
      "aboard": 3429,
      "soul": 3430,
      "weapons": 3431,
      "empty": 3432,
      "Hotel": 3433,
      "recognize": 3434,
      "atulations": 3435,
      "introduce": 3436,
      "railroad": 3437,
      "shirt": 3438,
      "Starck": 3439,
      "London": 3440,
      "Sergeant": 3441,
      "Jordan": 3442,
      "origin": 3443,
      "negoti": 3444,
      "\".": 3445,
      "10": 3446,
      "BA": 3447,
      "Karen": 3448,
      "Life": 3449,
      "Money": 3450,
      "Pick": 3451,
      "Papa": 3452,
      "Ry": 3453,
      "Res": 3454,
      "SE": 3455,
      "Such": 3456,
      "Save": 3457,
      "Sky": 3458,
      "Sloan": 3459,
      "Tur": 3460,
      "UP": 3461,
      "Ver": 3462,
      "ben": 3463,
      "bes": 3464,
      "bound": 3465,
      "bache": 3466,
      "fra": 3467,
      "flat": 3468,
      "gang": 3469,
      "kitchen": 3470,
      "opp": 3471,
      "pan": 3472,
      "papers": 3473,
      "ram": 3474,
      "rough": 3475,
      "sion": 3476,
      "tu": 3477,
      "uet": 3478,
      "wid": 3479,
      "eras": 3480,
      "iso": 3481,
      "enn": 3482,
      "iny": 3483,
      "inno": 3484,
      "assume": 3485,
      "onto": 3486,
      "atre": 3487,
      "replace": 3488,
      "theory": 3489,
      "itself": 3490,
      "arant": 3491,
      "essa": 3492,
      "hates": 3493,
      "hated": 3494,
      "bedr": 3495,
      "ghost": 3496,
      "lied": 3497,
      "forty": 3498,
      "formed": 3499,
      "ric": 3500,
      "tip": 3501,
      "notice": 3502,
      "roof": 3503,
      "feed": 3504,
      "urse": 3505,
      "worm": 3506,
      "ives": 3507,
      "Howard": 3508,
      "contact": 3509,
      "expen": 3510,
      "vention": 3511,
      "Dodge": 3512,
      "cock": 3513,
      "code": 3514,
      "costu": 3515,
      "themselves": 3516,
      "quest": 3517,
      "offense": 3518,
      "meaning": 3519,
      "imm": 3520,
      "tray": 3521,
      "trad": 3522,
      "spir": 3523,
      "acter": 3524,
      "actor": 3525,
      "aves": 3526,
      "pregn": 3527,
      "earlier": 3528,
      "scri": 3529,
      "blind": 3530,
      "support": 3531,
      "waited": 3532,
      "Forgive": 3533,
      "showed": 3534,
      "Start": 3535,
      "rule": 3536,
      "Except": 3537,
      "damned": 3538,
      "rooms": 3539,
      "brea": 3540,
      "Rock": 3541,
      "Anybody": 3542,
      "Almost": 3543,
      "matters": 3544,
      "vessel": 3545,
      "author": 3546,
      "creep": 3547,
      "lately": 3548,
      "walking": 3549,
      "general": 3550,
      "picking": 3551,
      "corner": 3552,
      "seriously": 3553,
      "drove": 3554,
      "sky": 3555,
      "skin": 3556,
      "Steed": 3557,
      "Bye": 3558,
      "legs": 3559,
      "ISS": 3560,
      "Cause": 3561,
      "Damone": 3562,
      "Clement": 3563,
      "television": 3564,
      "impressed": 3565,
      "whether": 3566,
      "wheel": 3567,
      "receive": 3568,
      "satis": 3569,
      "split": 3570,
      "Vanessa": 3571,
      "Wonder": 3572,
      "eggs": 3573,
      "vacation": 3574,
      "knees": 3575,
      "storm": 3576,
      "further": 3577,
      "Europe": 3578,
      "scale": 3579,
      "Pretty": 3580,
      "ocean": 3581,
      "Ryan": 3582,
      "bedroom": 3583,
      "100": 3584,
      "Amber": 3585,
      "Bas": 3586,
      "Cze": 3587,
      "Del": 3588,
      "Death": 3589,
      "Epp": 3590,
      "Easy": 3591,
      "Had": 3592,
      "Im": 3593,
      "Kam": 3594,
      "KISS": 3595,
      "Little": 3596,
      "Later": 3597,
      "Ra": 3598,
      "Sway": 3599,
      "Seven": 3600,
      "Sire": 3601,
      "Suz": 3602,
      "TH": 3603,
      "Talk": 3604,
      "Use": 3605,
      "bass": 3606,
      "boo": 3607,
      "cil": 3608,
      "cards": 3609,
      "dan": 3610,
      "double": 3611,
      "during": 3612,
      "fag": 3613,
      "flying": 3614,
      "hom": 3615,
      "jour": 3616,
      "jac": 3617,
      "loose": 3618,
      "mic": 3619,
      "mix": 3620,
      "ni": 3621,
      "pers": 3622,
      "pants": 3623,
      "ral": 3624,
      "snow": 3625,
      "sna": 3626,
      "slight": 3627,
      "tun": 3628,
      "uable": 3629,
      "whis": 3630,
      "zak": 3631,
      "indeed": 3632,
      "isters": 3633,
      "ender": 3634,
      "theatre": 3635,
      "itude": 3636,
      "velo": 3637,
      "espe": 3638,
      "otto": 3639,
      "ofab": 3640,
      "sees": 3641,
      "sever": 3642,
      "verse": 3643,
      "rie": 3644,
      "rior": 3645,
      "weak": 3646,
      "knowledge": 3647,
      "Web": 3648,
      "Helen": 3649,
      "rock": 3650,
      "loss": 3651,
      "losing": 3652,
      "mole": 3653,
      "Things": 3654,
      "illeg": 3655,
      "degre": 3656,
      "anks": 3657,
      "Doc": 3658,
      "tood": 3659,
      "tions": 3660,
      "scar": 3661,
      "Whoa": 3662,
      "mental": 3663,
      "written": 3664,
      "angle": 3665,
      "helping": 3666,
      "dammit": 3667,
      "keeps": 3668,
      "partners": 3669,
      "succ": 3670,
      "sia": 3671,
      "starts": 3672,
      "Friday": 3673,
      "mostly": 3674,
      "lived": 3675,
      "clown": 3676,
      "played": 3677,
      "points": 3678,
      "weekend": 3679,
      "sitive": 3680,
      "ctions": 3681,
      "speed": 3682,
      "border": 3683,
      "pathetic": 3684,
      "Bring": 3685,
      "grave": 3686,
      "graph": 3687,
      "brothers": 3688,
      "Without": 3689,
      "Childs": 3690,
      "ators": 3691,
      "logy": 3692,
      "incred": 3693,
      "dressed": 3694,
      "total": 3695,
      "military": 3696,
      "AND": 3697,
      "Vigo": 3698,
      "psycho": 3699,
      "concern": 3700,
      "Colon": 3701,
      "magic": 3702,
      "opera": 3703,
      "Quite": 3704,
      "smoke": 3705,
      "smoking": 3706,
      "drugs": 3707,
      "Check": 3708,
      "quarters": 3709,
      "mbers": 3710,
      "college": 3711,
      "data": 3712,
      "birthday": 3713,
      "suddenly": 3714,
      "Powers": 3715,
      "Thirty": 3716,
      "Ilsa": 3717,
      "regular": 3718,
      "sneak": 3719,
      "Wallace": 3720,
      "amazing": 3721,
      "model": 3722,
      "details": 3723,
      "Relax": 3724,
      "Bourne": 3725,
      "Director": 3726,
      "Tonight": 3727,
      "conversation": 3728,
      "Skywire": 3729,
      "bachelor": 3730,
      "innocent": 3731,
      "Epps": 3732,
      "Swayzak": 3733,
      "especially": 3734,
      "degrees": 3735,
      "success": 3736,
      "!?": 3737,
      "\"...<|": 3738,
      "AA": 3739,
      "Bu": 3740,
      "Cha": 3741,
      "Care": 3742,
      "Dis": 3743,
      "Dave": 3744,
      "Ear": 3745,
      "Event": 3746,
      "Ha": 3747,
      "House": 3748,
      "Ju": 3749,
      "Jill": 3750,
      "Jose": 3751,
      "Ly": 3752,
      "Mel": 3753,
      "Mmm": 3754,
      "None": 3755,
      "Nine": 3756,
      "Number": 3757,
      "Part": 3758,
      "Run": 3759,
      "Rena": 3760,
      "Satur": 3761,
      "Sandy": 3762,
      "Veg": 3763,
      "ban": 3764,
      "dic": 3765,
      "dale": 3766,
      "iers": 3767,
      "ker": 3768,
      "lun": 3769,
      "mass": 3770,
      "mare": 3771,
      "mate": 3772,
      "master": 3773,
      "nature": 3774,
      "oil": 3775,
      "pin": 3776,
      "pun": 3777,
      "pool": 3778,
      "pump": 3779,
      "pounds": 3780,
      "rum": 3781,
      "tub": 3782,
      "wers": 3783,
      "ye": 3784,
      "ergy": 3785,
      "thro": 3786,
      "energy": 3787,
      "usually": 3788,
      "inci": 3789,
      "instru": 3790,
      "repe": 3791,
      "recomm": 3792,
      "remain": 3793,
      "tory": 3794,
      "lla": 3795,
      "lli": 3796,
      "lled": 3797,
      "meters": 3798,
      "heat": 3799,
      "heaven": 3800,
      "lejack": 3801,
      "bell": 3802,
      "ali": 3803,
      "alous": 3804,
      "forms": 3805,
      "cher": 3806,
      "chan": 3807,
      "adm": 3808,
      "abs": 3809,
      "abor": 3810,
      "ability": 3811,
      "upon": 3812,
      "rog": 3813,
      "rop": 3814,
      "unt": 3815,
      "shar": 3816,
      "ified": 3817,
      "Thom": 3818,
      "nose": 3819,
      "female": 3820,
      "decent": 3821,
      "devil": 3822,
      "rights": 3823,
      "inda": 3824,
      "poison": 3825,
      "pocket": 3826,
      "plant": 3827,
      "contain": 3828,
      "ilton": 3829,
      "asty": 3830,
      "comin": 3831,
      "commission": 3832,
      "complain": 3833,
      "trade": 3834,
      "proof": 3835,
      "project": 3836,
      "process": 3837,
      "spot": 3838,
      "sphere": 3839,
      "prefer": 3840,
      "chest": 3841,
      "cheap": 3842,
      "emm": 3843,
      "ems": 3844,
      "ement": 3845,
      "bling": 3846,
      "nights": 3847,
      "finding": 3848,
      "dia": 3849,
      "dict": 3850,
      "file": 3851,
      "laid": 3852,
      "Real": 3853,
      "ints": 3854,
      "mond": 3855,
      "parts": 3856,
      "suicide": 3857,
      "marks": 3858,
      "Second": 3859,
      "positive": 3860,
      "Shhh": 3861,
      "answers": 3862,
      "clever": 3863,
      "izon": 3864,
      "Mau": 3865,
      "paying": 3866,
      "Arctic": 3867,
      "appy": 3868,
      "Commod": 3869,
      "sleeping": 3870,
      "visa": 3871,
      "turns": 3872,
      "bringing": 3873,
      "Lewis": 3874,
      "pressed": 3875,
      "pressure": 3876,
      "charming": 3877,
      "character": 3878,
      "trial": 3879,
      "bullet": 3880,
      "cording": 3881,
      "balls": 3882,
      "screwed": 3883,
      "copy": 3884,
      "Peters": 3885,
      "paint": 3886,
      "pleasant": 3887,
      "hanging": 3888,
      "bags": 3889,
      "captain": 3890,
      "suspic": 3891,
      "perfectly": 3892,
      "distur": 3893,
      "extreme": 3894,
      "True": 3895,
      "Scot": 3896,
      "teacher": 3897,
      "regret": 3898,
      "forgotten": 3899,
      "green": 3900,
      "systems": 3901,
      "philoso": 3902,
      "square": 3903,
      "surprise": 3904,
      "Warrior": 3905,
      "purpose": 3906,
      "Calvin": 3907,
      "turning": 3908,
      "Applejack": 3909,
      "glasses": 3910,
      "virgin": 3911,
      "gradu": 3912,
      "White": 3913,
      "video": 3914,
      "Feel": 3915,
      "Emperor": 3916,
      "Fifty": 3917,
      "Liber": 3918,
      "ville": 3919,
      "evidence": 3920,
      "judge": 3921,
      "Farmer": 3922,
      "radiation": 3923,
      "attractive": 3924,
      "Lisa": 3925,
      "complicated": 3926,
      "Flaemm": 3927,
      "bottle": 3928,
      "disease": 3929,
      "difficult": 3930,
      "freedom": 3931,
      "opport": 3932,
      "Suzette": 3933,
      "ofabitch": 3934,
      "Saturday": 3935,
      "Vegas": 3936,
      "Commodus": 3937,
      "\",": 3938,
      "15": 3939,
      "Ac": 3940,
      "CON": 3941,
      "Day": 3942,
      "Er": 3943,
      "Eat": 3944,
      "Ele": 3945,
      "Ever": 3946,
      "Egon": 3947,
      "Either": 3948,
      "Free": 3949,
      "Gimme": 3950,
      "IG": 3951,
      "Jap": 3952,
      "Ken": 3953,
      "Kat": 3954,
      "LA": 3955,
      "Lem": 3956,
      "Linda": 3957,
      "Old": 3958,
      "Ooo": 3959,
      "RO": 3960,
      "Rep": 3961,
      "Send": 3962,
      "Stra": 3963,
      "Trip": 3964,
      "UT": 3965,
      "Vall": 3966,
      "abe": 3967,
      "bare": 3968,
      "bly": 3969,
      "bright": 3970,
      "bite": 3971,
      "block": 3972,
      "bio": 3973,
      "cing": 3974,
      "crying": 3975,
      "dating": 3976,
      "ease": 3977,
      "faster": 3978,
      "ired": 3979,
      "lone": 3980,
      "numb": 3981,
      "pu": 3982,
      "sight": 3983,
      "tis": 3984,
      "wet": 3985,
      "ware": 3986,
      "yers": 3987,
      "|>*": 3988,
      "iselle": 3989,
      "istry": 3990,
      "assure": 3991,
      "thew": 3992,
      "ites": 3993,
      "arri": 3994,
      "arently": 3995,
      "lebr": 3996,
      "Younger": 3997,
      "stant": 3998,
      "stro": 3999,
      "licy": 4000,
      "nowhere": 4001,
      "...!<|": 4002,
      "forced": 4003,
      "ceed": 4004,
      "celebr": 4005,
      "ables": 4006,
      "hol": 4007,
      "upstairs": 4008,
      "sometime": 4009,
      "Nope": 4010,
      "tered": 4011,
      "unit": 4012,
      "ific": 4013,
      "moiselle": 4014,
      "thinkin": 4015,
      "ourselves": 4016,
      "demon": 4017,
      "poser": 4018,
      "policy": 4019,
      "ices": 4020,
      "contra": 4021,
      "iles": 4022,
      "goodbye": 4023,
      "tooth": 4024,
      "lookin": 4025,
      "fake": 4026,
      "faith": 4027,
      "progress": 4028,
      "letting": 4029,
      "ears": 4030,
      "sched": 4031,
      "blown": 4032,
      "nightmare": 4033,
      "grant": 4034,
      "grab": 4035,
      "anged": 4036,
      "Ready": 4037,
      "intend": 4038,
      "tongue": 4039,
      "believed": 4040,
      "names": 4041,
      "supp": 4042,
      "courage": 4043,
      "starting": 4044,
      "understanding": 4045,
      "result": 4046,
      "bits": 4047,
      "craft": 4048,
      "Move": 4049,
      "planation": 4050,
      "Roc": 4051,
      "shame": 4052,
      "ggie": 4053,
      "pretend": 4054,
      "aware": 4055,
      "dealing": 4056,
      "desk": 4057,
      "sweat": 4058,
      "Coast": 4059,
      "chain": 4060,
      "compet": 4061,
      "ctice": 4062,
      "eaten": 4063,
      "eating": 4064,
      "Chili": 4065,
      "horses": 4066,
      "Perfect": 4067,
      "Says": 4068,
      "inced": 4069,
      "passed": 4070,
      "enemy": 4071,
      "books": 4072,
      "fortune": 4073,
      "OUT": 4074,
      "ordered": 4075,
      "cleaner": 4076,
      "huge": 4077,
      "Cluet": 4078,
      "burg": 4079,
      "burning": 4080,
      "drag": 4081,
      "bbing": 4082,
      "confused": 4083,
      "Carl": 4084,
      "tests": 4085,
      "official": 4086,
      "capable": 4087,
      "Luis": 4088,
      "soldiers": 4089,
      "changes": 4090,
      "Senate": 4091,
      "Germans": 4092,
      "filled": 4093,
      "approach": 4094,
      "temper": 4095,
      "Horizon": 4096,
      "Hamilton": 4097,
      "Hmmm": 4098,
      "knock": 4099,
      "disappear": 4100,
      "disappeared": 4101,
      "crowd": 4102,
      "soft": 4103,
      "hiding": 4104,
      "Mexico": 4105,
      "Special": 4106,
      "beyond": 4107,
      "slept": 4108,
      "swim": 4109,
      "Stacy": 4110,
      "frightened": 4111,
      "reasons": 4112,
      "Angel": 4113,
      "Clementine": 4114,
      "Joseph": 4115,
      "Renault": 4116,
      "throat": 4117,
      "Lemme": 4118,
      "lonely": 4119,
      "Cluett": 4120,
      "'?": 4121,
      "12": 4122,
      "18": 4123,
      "30": 4124,
      "?...<|": 4125,
      "Bad": 4126,
      "Bro": 4127,
      "Bur": 4128,
      "Cont": 4129,
      "DE": 4130,
      "Down": 4131,
      "East": 4132,
      "FU": 4133,
      "Hol": 4134,
      "Happy": 4135,
      "II": 4136,
      "Lt": 4137,
      "Lar": 4138,
      "MM": 4139,
      "Ms": 4140,
      "Nune": 4141,
      "Ob": 4142,
      "Pal": 4143,
      "Pink": 4144,
      "Pull": 4145,
      "Pop": 4146,
      "Promise": 4147,
      "Red": 4148,
      "SA": 4149,
      "Sar": 4150,
      "Swe": 4151,
      "Sur": 4152,
      "TO": 4153,
      "TIN": 4154,
      "THAT": 4155,
      "Vir": 4156,
      "Work": 4157,
      "bal": 4158,
      "cin": 4159,
      "da": 4160,
      "dare": 4161,
      "equi": 4162,
      "iv": 4163,
      "kins": 4164,
      "loud": 4165,
      "mood": 4166,
      "nn": 4167,
      "nest": 4168,
      "pet": 4169,
      "pment": 4170,
      "sink": 4171,
      "sla": 4172,
      "tar": 4173,
      "wre": 4174,
      "zer": 4175,
      "ana": 4176,
      "ences": 4177,
      "asing": 4178,
      "usins": 4179,
      "ining": 4180,
      "incl": 4181,
      "istic": 4182,
      "rew": 4183,
      "reed": 4184,
      "revol": 4185,
      "itz": 4186,
      "itel": 4187,
      "arms": 4188,
      "argue": 4189,
      "betray": 4190,
      "often": 4191,
      "andon": 4192,
      "alarm": 4193,
      "stances": 4194,
      "liar": 4195,
      "lift": 4196,
      "dozen": 4197,
      "vern": 4198,
      "wild": 4199,
      "entertain": 4200,
      "ams": 4201,
      "among": 4202,
      "unny": 4203,
      "raw": 4204,
      "tear": 4205,
      "pear": 4206,
      "deck": 4207,
      "bol": 4208,
      "manager": 4209,
      "saf": 4210,
      "maid": 4211,
      "cake": 4212,
      "constru": 4213,
      "ateful": 4214,
      "iling": 4215,
      "comb": 4216,
      "common": 4217,
      "icks": 4218,
      "failed": 4219,
      "que": 4220,
      "quot": 4221,
      "kaya": 4222,
      "Donald": 4223,
      "image": 4224,
      "oughta": 4225,
      "readings": 4226,
      "issue": 4227,
      "cheese": 4228,
      "grateful": 4229,
      "minist": 4230,
      "inten": 4231,
      "prote": 4232,
      "sonofabitch": 4233,
      "Force": 4234,
      "shie": 4235,
      "ships": 4236,
      "carrying": 4237,
      "mercy": 4238,
      "ignor": 4239,
      "rett": 4240,
      "izing": 4241,
      "pardon": 4242,
      "smith": 4243,
      "audi": 4244,
      "apples": 4245,
      "medical": 4246,
      "warn": 4247,
      "High": 4248,
      "ugly": 4249,
      "Manray": 4250,
      "charged": 4251,
      "grapher": 4252,
      "truly": 4253,
      "expected": 4254,
      "license": 4255,
      "committed": 4256,
      "Newt": 4257,
      "horrible": 4258,
      "deton": 4259,
      "!!!": 4260,
      "incess": 4261,
      "Danny": 4262,
      "Grusins": 4263,
      "Couldn": 4264,
      "engaged": 4265,
      "confession": 4266,
      "daughters": 4267,
      "files": 4268,
      "freezing": 4269,
      "valuable": 4270,
      "wallet": 4271,
      "Keitel": 4272,
      "regard": 4273,
      "fixed": 4274,
      "Madame": 4275,
      "exciting": 4276,
      "entirely": 4277,
      "selling": 4278,
      "mirac": 4279,
      "Calm": 4280,
      "appointment": 4281,
      "circum": 4282,
      "obviously": 4283,
      "belongs": 4284,
      "psychic": 4285,
      "failure": 4286,
      "Jimmy": 4287,
      "jealous": 4288,
      "Mademoiselle": 4289,
      "demand": 4290,
      "Wolfi": 4291,
      "fortunate": 4292,
      "Ronnie": 4293,
      "Honest": 4294,
      "twist": 4295,
      "seventy": 4296,
      "prepared": 4297,
      "medicine": 4298,
      "dancing": 4299,
      "frozen": 4300,
      "score": 4301,
      "KILL": 4302,
      "Hawk": 4303,
      "Hurry": 4304,
      "execut": 4305,
      "pregnant": 4306,
      "jacket": 4307,
      "opportunity": 4308,
      "Nunez": 4309,
      "Grusinskaya": 4310,
      "!...<|": 4311,
      ".,": 4312,
      "17": 4313,
      "Aug": 4314,
      "Agent": 4315,
      "Bian": 4316,
      "Cut": 4317,
      "Cons": 4318,
      "Cooper": 4319,
      "Eliz": 4320,
      "Fair": 4321,
      "Grace": 4322,
      "HA": 4323,
      "Hir": 4324,
      "Him": 4325,
      "Hang": 4326,
      "Ir": 4327,
      "LO": 4328,
      "Lenny": 4329,
      "Mat": 4330,
      "Mind": 4331,
      "Mine": 4332,
      "MAN": 4333,
      "Makes": 4334,
      "Name": 4335,
      "Rom": 4336,
      "Su": 4337,
      "Sha": 4338,
      "Sch": 4339,
      "Sea": 4340,
      "Ston": 4341,
      "Screw": 4342,
      "TA": 4343,
      "Tower": 4344,
      "Ugar": 4345,
      "UED": 4346,
      "Wr": 4347,
      "Way": 4348,
      "Yo": 4349,
      "bone": 4350,
      "bul": 4351,
      "bie": 4352,
      "bum": 4353,
      "cup": 4354,
      "cure": 4355,
      "cla": 4356,
      "ders": 4357,
      "event": 4358,
      "fas": 4359,
      "fal": 4360,
      "fund": 4361,
      "fla": 4362,
      "gust": 4363,
      "gate": 4364,
      "har": 4365,
      "jet": 4366,
      "las": 4367,
      "nar": 4368,
      "nation": 4369,
      "phe": 4370,
      "pul": 4371,
      "pred": 4372,
      "prick": 4373,
      "rab": 4374,
      "ratulations": 4375,
      "scan": 4376,
      "wound": 4377,
      "zz": 4378,
      "ann": 4379,
      "thirst": 4380,
      "ising": 4381,
      "island": 4382,
      "ased": 4383,
      "asure": 4384,
      "inting": 4385,
      "ato": 4386,
      "recall": 4387,
      "reput": 4388,
      "recent": 4389,
      "research": 4390,
      "thead": 4391,
      "held": 4392,
      "esc": 4393,
      "escap": 4394,
      "leak": 4395,
      "bear": 4396,
      "educ": 4397,
      "season": 4398,
      "identi": 4399,
      "alco": 4400,
      "stall": 4401,
      "lions": 4402,
      "dom": 4403,
      "outs": 4404,
      "....<|": 4405,
      "rican": 4406,
      "weed": 4407,
      "choose": 4408,
      "chief": 4409,
      "add": 4410,
      "knowing": 4411,
      "neither": 4412,
      "hire": 4413,
      "irt": 4414,
      "Ital": 4415,
      "enter": 4416,
      "aming": 4417,
      "term": 4418,
      "eaking": 4419,
      "uncle": 4420,
      "motor": 4421,
      "rape": 4422,
      "raise": 4423,
      "worms": 4424,
      "boots": 4425,
      "indic": 4426,
      "sale": 4427,
      "button": 4428,
      "eloo": 4429,
      "iger": 4430,
      "igno": 4431,
      "exit": 4432,
      "erstood": 4433,
      "tellin": 4434,
      "whoever": 4435,
      "episo": 4436,
      "coinc": 4437,
      "shell": 4438,
      "undress": 4439,
      "Gold": 4440,
      "proced": 4441,
      "spring": 4442,
      "perfor": 4443,
      "perform": 4444,
      "downtown": 4445,
      "downstairs": 4446,
      "ideas": 4447,
      "stomach": 4448,
      "storage": 4449,
      "lieutenant": 4450,
      "emotion": 4451,
      "gren": 4452,
      "Being": 4453,
      "pson": 4454,
      "elly": 4455,
      "keeper": 4456,
      "jobs": 4457,
      "Sec": 4458,
      "closer": 4459,
      "bigger": 4460,
      "retta": 4461,
      "clus": 4462,
      "cloud": 4463,
      "runs": 4464,
      "final": 4465,
      "Moon": 4466,
      "airlock": 4467,
      "DeLa": 4468,
      "desper": 4469,
      "harder": 4470,
      "create": 4471,
      "borrow": 4472,
      "toward": 4473,
      "strate": 4474,
      "visible": 4475,
      "Cos": 4476,
      "compli": 4477,
      "Levi": 4478,
      "Leeloo": 4479,
      "corpor": 4480,
      "Until": 4481,
      "Police": 4482,
      "Jean": 4483,
      "dete": 4484,
      "Los": 4485,
      "Loretta": 4486,
      "secur": 4487,
      "Gee": 4488,
      "sexual": 4489,
      "cleaned": 4490,
      "burger": 4491,
      "daddy": 4492,
      "Gotta": 4493,
      "confidence": 4494,
      "citiz": 4495,
      "Pardon": 4496,
      "collect": 4497,
      "Teddy": 4498,
      "sales": 4499,
      "register": 4500,
      "Marty": 4501,
      "considered": 4502,
      "sweetie": 4503,
      "Congratulations": 4504,
      "Freddy": 4505,
      "anzi": 4506,
      "occup": 4507,
      "allowed": 4508,
      "Outpost": 4509,
      "laughing": 4510,
      "practice": 4511,
      "Apparently": 4512,
      "tickets": 4513,
      "Williams": 4514,
      "above": 4515,
      "tempt": 4516,
      "colon": 4517,
      "Lovejoy": 4518,
      "timate": 4519,
      "popular": 4520,
      "activ": 4521,
      "coward": 4522,
      "buddy": 4523,
      "gamble": 4524,
      "programmed": 4525,
      "convinced": 4526,
      "continue": 4527,
      "Duke": 4528,
      "pills": 4529,
      "assignment": 4530,
      "loyal": 4531,
      "Girl": 4532,
      "source": 4533,
      "cigarette": 4534,
      "director": 4535,
      "criminal": 4536,
      "widow": 4537,
      "costume": 4538,
      "script": 4539,
      "mixed": 4540,
      "ottom": 4541,
      "abeth": 4542,
      "numbers": 4543,
      "contract": 4544,
      "supplies": 4545,
      "Palmer": 4546,
      "vernment": 4547,
      "pearls": 4548,
      "safety": 4549,
      "circumstances": 4550,
      "August": 4551,
      "Bianca": 4552,
      "Elizabeth": 4553,
      "Hirsch": 4554,
      "Stones": 4555,
      "Ugarte": 4556,
      "thirsty": 4557,
      "reputation": 4558,
      "ricane": 4559,
      "procedure": 4560,
      "13": 4561,
      "16": 4562,
      "22": 4563,
      "Bru": 4564,
      "Darling": 4565,
      "DAM": 4566,
      "End": 4567,
      "Fle": 4568,
      "Fra": 4569,
      "Friend": 4570,
      "Gent": 4571,
      "Glad": 4572,
      "Glor": 4573,
      "Hy": 4574,
      "Higg": 4575,
      "Hicks": 4576,
      "Lin": 4577,
      "Luck": 4578,
      "Mm": 4579,
      "Mor": 4580,
      "Muddy": 4581,
      "OP": 4582,
      "Person": 4583,
      "Pene": 4584,
      "Play": 4585,
      "Que": 4586,
      "Sher": 4587,
      "Sue": 4588,
      "South": 4589,
      "Tra": 4590,
      "Teas": 4591,
      "WE": 4592,
      "Whe": 4593,
      "Wood": 4594,
      "Ya": 4595,
      "Yep": 4596,
      "aco": 4597,
      "bid": 4598,
      "besides": 4599,
      "bottom": 4600,
      "cand": 4601,
      "cooper": 4602,
      "dar": 4603,
      "eed": 4604,
      "fet": 4605,
      "fir": 4606,
      "gay": 4607,
      "gal": 4608,
      "gers": 4609,
      "ius": 4610,
      "jin": 4611,
      "jam": 4612,
      "mere": 4613,
      "mers": 4614,
      "pit": 4615,
      "pes": 4616,
      "rank": 4617,
      "sand": 4618,
      "sucks": 4619,
      "ture": 4620,
      "tled": 4621,
      "ury": 4622,
      "vag": 4623,
      "vard": 4624,
      "vig": 4625,
      "winter": 4626,
      "xy": 4627,
      "zoo": 4628,
      "zero": 4629,
      "err": 4630,
      "analy": 4631,
      "oul": 4632,
      "thief": 4633,
      "enger": 4634,
      "asion": 4635,
      "informed": 4636,
      "asses": 4637,
      "ona": 4638,
      "atter": 4639,
      "rele": 4640,
      "reti": 4641,
      "reserv": 4642,
      "request": 4643,
      "llen": 4644,
      "owes": 4645,
      "becoming": 4646,
      "became": 4647,
      "separ": 4648,
      "section": 4649,
      "staff": 4650,
      "stiff": 4651,
      "lius": 4652,
      "dock": 4653,
      "outlaw": 4654,
      "riot": 4655,
      "chu": 4656,
      "chen": 4657,
      "chase": 4658,
      "ador": 4659,
      "ception": 4660,
      "omi": 4661,
      "omen": 4662,
      "ably": 4663,
      "tian": 4664,
      "tive": 4665,
      "tied": 4666,
      "negative": 4667,
      "hill": 4668,
      "hired": 4669,
      "wash": 4670,
      "whatI": 4671,
      "within": 4672,
      "amount": 4673,
      "tering": 4674,
      "lope": 4675,
      "loser": 4676,
      "unhappy": 4677,
      "unusual": 4678,
      "tax": 4679,
      "urt": 4680,
      "develo": 4681,
      "agreed": 4682,
      "gum": 4683,
      "guarant": 4684,
      "mail": 4685,
      "plus": 4686,
      "Yesterday": 4687,
      "consc": 4688,
      "convi": 4689,
      "conference": 4690,
      "atell": 4691,
      "ilty": 4692,
      "exam": 4693,
      "explanation": 4694,
      "shead": 4695,
      "werewolf": 4696,
      "tran": 4697,
      "umont": 4698,
      "spy": 4699,
      "hadn": 4700,
      "ached": 4701,
      "precise": 4702,
      "object": 4703,
      "stock": 4704,
      "stolen": 4705,
      "scr": 4706,
      "Whoever": 4707,
      "tryin": 4708,
      "foreign": 4709,
      "grown": 4710,
      "standard": 4711,
      "ueger": 4712,
      "feelings": 4713,
      "Inspe": 4714,
      "kindness": 4715,
      "drown": 4716,
      "cares": 4717,
      "princi": 4718,
      "mater": 4719,
      "Seems": 4720,
      "reality": 4721,
      "civi": 4722,
      "merger": 4723,
      "France": 4724,
      "Franc": 4725,
      "glory": 4726,
      "hearing": 4727,
      "stayed": 4728,
      "resent": 4729,
      "rub": 4730,
      "interrup": 4731,
      "craw": 4732,
      "shock": 4733,
      "shaw": 4734,
      "Devil": 4735,
      "ggin": 4736,
      "funeral": 4737,
      "settle": 4738,
      "dealer": 4739,
      "Today": 4740,
      "descri": 4741,
      "warning": 4742,
      "hopeless": 4743,
      "fourteen": 4744,
      "Enough": 4745,
      "sensitive": 4746,
      "sixteen": 4747,
      "locker": 4748,
      "hurts": 4749,
      "gravity": 4750,
      "ctives": 4751,
      "elev": 4752,
      "bullets": 4753,
      "Barrett": 4754,
      "pieces": 4755,
      "invite": 4756,
      "sending": 4757,
      "HERE": 4758,
      "sexy": 4759,
      "pattern": 4760,
      "hunt": 4761,
      "related": 4762,
      "Wasn": 4763,
      "north": 4764,
      "cury": 4765,
      "niece": 4766,
      "midnight": 4767,
      "Lucy": 4768,
      "expert": 4769,
      "salv": 4770,
      "changing": 4771,
      "whom": 4772,
      "Mothershead": 4773,
      "created": 4774,
      "victim": 4775,
      "busted": 4776,
      "impression": 4777,
      "Excellent": 4778,
      "honestly": 4779,
      "NOW": 4780,
      "Jamie": 4781,
      "humor": 4782,
      "Green": 4783,
      "Horn": 4784,
      "McC": 4785,
      "odd": 4786,
      "collection": 4787,
      "bills": 4788,
      "refuse": 4789,
      "destroyed": 4790,
      "weapon": 4791,
      "facility": 4792,
      "Halfdan": 4793,
      "Krueger": 4794,
      "flowers": 4795,
      "health": 4796,
      "president": 4797,
      "physical": 4798,
      "embarrassing": 4799,
      "Cliff": 4800,
      "Naomi": 4801,
      "ordinary": 4802,
      "Depart": 4803,
      "Follow": 4804,
      "defense": 4805,
      "pageant": 4806,
      "Beaumont": 4807,
      "expensive": 4808,
      "tradition": 4809,
      "Czech": 4810,
      "tunnel": 4811,
      "illegal": 4812,
      "incredible": 4813,
      "Earth": 4814,
      "repeat": 4815,
      "sharp": 4816,
      "suspicious": 4817,
      "disturb": 4818,
      "Scotland": 4819,
      "CONTIN": 4820,
      "Japan": 4821,
      "arrived": 4822,
      "FUCK": 4823,
      "ministration": 4824,
      "claim": 4825,
      "false": 4826,
      "Secret": 4827,
      "desperate": 4828,
      "compliment": 4829,
      "security": 4830,
      "Gentle": 4831,
      "Higgins": 4832,
      "Penelope": 4833,
      "Inspector": 4834,
      "CONTINUED": 4835,
      "!\"<|": 4836,
      "\"?": 4837,
      "\"...": 4838,
      "*!<|": 4839,
      "21": 4840,
      "?'<|": 4841,
      "AG": 4842,
      "Amy": 4843,
      "Bon": 4844,
      "Bab": 4845,
      "Bear": 4846,
      "Bla": 4847,
      "City": 4848,
      "Catch": 4849,
      "Close": 4850,
      "Coffee": 4851,
      "Di": 4852,
      "Dou": 4853,
      "Dest": 4854,
      "Die": 4855,
      "Dude": 4856,
      "Espe": 4857,
      "Fall": 4858,
      "Gon": 4859,
      "Gill": 4860,
      "Gree": 4861,
      "Gang": 4862,
      "Glady": 4863,
      "ID": 4864,
      "June": 4865,
      "Jaco": 4866,
      "Kar": 4867,
      "Kay": 4868,
      "Kid": 4869,
      "Kurt": 4870,
      "Law": 4871,
      "MO": 4872,
      "Nat": 4873,
      "OD": 4874,
      "Pre": 4875,
      "Pho": 4876,
      "Phy": 4877,
      "Park": 4878,
      "Ru": 4879,
      "Room": 4880,
      "Ss": 4881,
      "Sto": 4882,
      "Sing": 4883,
      "TE": 4884,
      "Tot": 4885,
      "Tues": 4886,
      "Vo": 4887,
      "Walk": 4888,
      "Zu": 4889,
      "buck": 4890,
      "dish": 4891,
      "ether": 4892,
      "fart": 4893,
      "gut": 4894,
      "guts": 4895,
      "imo": 4896,
      "iest": 4897,
      "lack": 4898,
      "mask": 4899,
      "mical": 4900,
      "nu": 4901,
      "nurse": 4902,
      "oon": 4903,
      "pant": 4904,
      "pound": 4905,
      "pity": 4906,
      "rise": 4907,
      "san": 4908,
      "sor": 4909,
      "sam": 4910,
      "slo": 4911,
      "swell": 4912,
      "sword": 4913,
      "swer": 4914,
      "satell": 4915,
      "tits": 4916,
      "uva": 4917,
      "von": 4918,
      "vit": 4919,
      "vere": 4920,
      "wing": 4921,
      "wag": 4922,
      "west": 4923,
      "wander": 4924,
      "yo": 4925,
      "zed": 4926,
      "oupi": 4927,
      "thri": 4928,
      "enstein": 4929,
      "intell": 4930,
      "endid": 4931,
      "asser": 4932,
      "resc": 4933,
      "relat": 4934,
      "orn": 4935,
      "vet": 4936,
      "vey": 4937,
      "arti": 4938,
      "leigh": 4939,
      "sequ": 4940,
      "stab": 4941,
      "stink": 4942,
      "stery": 4943,
      "style": 4944,
      "cky": 4945,
      "lion": 4946,
      "liqu": 4947,
      "dope": 4948,
      "docum": 4949,
      "vert": 4950,
      "ads": 4951,
      "ader": 4952,
      "admir": 4953,
      "notes": 4954,
      "Their": 4955,
      "termin": 4956,
      "local": 4957,
      "unic": 4958,
      "shark": 4959,
      "moder": 4960,
      "Thur": 4961,
      "illac": 4962,
      "agne": 4963,
      "agent": 4964,
      "guilty": 4965,
      "managed": 4966,
      "saving": 4967,
      "ppy": 4968,
      "naked": 4969,
      "ples": 4970,
      "Welles": 4971,
      "capt": 4972,
      "caused": 4973,
      "pley": 4974,
      "congr": 4975,
      "convention": 4976,
      "aint": 4977,
      "owns": 4978,
      "exer": 4979,
      "exact": 4980,
      "venge": 4981,
      "backwards": 4982,
      "whose": 4983,
      "goodness": 4984,
      "iment": 4985,
      "understood": 4986,
      "spare": 4987,
      "permission": 4988,
      "prevent": 4989,
      "kills": 4990,
      "apy": 4991,
      "sche": 4992,
      "scary": 4993,
      "chemical": 4994,
      "newsp": 4995,
      "underground": 4996,
      "torney": 4997,
      "Beth": 4998,
      "buried": 4999,
      "insist": 5000,
      "friendly": 5001,
      "helped": 5002,
      "traffic": 5003,
      "kinds": 5004,
      "aken": 5005,
      "babies": 5006,
      "mative": 5007,
      "shift": 5008,
      "Sevent": 5009,
      "Sebas": 5010,
      "closing": 5011,
      "posal": 5012,
      "Chuck": 5013,
      "handsome": 5014,
      "student": 5015,
      "helluva": 5016,
      "dishes": 5017,
      "disgust": 5018,
      "State": 5019,
      "Street": 5020,
      "Stanzi": 5021,
      "resist": 5022,
      "club": 5023,
      "planned": 5024,
      "player": 5025,
      "park": 5026,
      "Mach": 5027,
      "shape": 5028,
      "Also": 5029,
      "Deck": 5030,
      "Definitely": 5031,
      "lesson": 5032,
      "gger": 5033,
      "smile": 5034,
      "counse": 5035,
      "counter": 5036,
      "onsense": 5037,
      "Answer": 5038,
      "bargain": 5039,
      "Composer": 5040,
      "Surely": 5041,
      "checking": 5042,
      "lands": 5043,
      "mming": 5044,
      "mommy": 5045,
      "senti": 5046,
      "senior": 5047,
      "pressing": 5048,
      "Ricky": 5049,
      "crush": 5050,
      "privi": 5051,
      "frank": 5052,
      "March": 5053,
      "dreaming": 5054,
      "opening": 5055,
      "Meyers": 5056,
      "venture": 5057,
      "reasonable": 5058,
      "Pole": 5059,
      "attitude": 5060,
      "metal": 5061,
      "riding": 5062,
      "ridor": 5063,
      "passenger": 5064,
      "invited": 5065,
      "velous": 5066,
      "screen": 5067,
      "painting": 5068,
      "Hope": 5069,
      "ailable": 5070,
      "ength": 5071,
      "hunting": 5072,
      "following": 5073,
      "Mercury": 5074,
      "Ripley": 5075,
      "milk": 5076,
      "version": 5077,
      "starving": 5078,
      "value": 5079,
      "appear": 5080,
      "slave": 5081,
      "Samuel": 5082,
      "touched": 5083,
      "flu": 5084,
      "throwing": 5085,
      "Dorsia": 5086,
      "Princess": 5087,
      "nearly": 5088,
      "streets": 5089,
      "structure": 5090,
      "desert": 5091,
      "basic": 5092,
      "phia": 5093,
      "raped": 5094,
      "Moreover": 5095,
      "196": 5096,
      "onds": 5097,
      "mirror": 5098,
      "swing": 5099,
      "switch": 5100,
      "darkness": 5101,
      "quarter": 5102,
      "Ministry": 5103,
      "Strasser": 5104,
      "mentioned": 5105,
      "humili": 5106,
      "coln": 5107,
      "Greene": 5108,
      "knocked": 5109,
      "folk": 5110,
      "niner": 5111,
      "slip": 5112,
      "tricks": 5113,
      "advise": 5114,
      "connection": 5115,
      "Murphy": 5116,
      "Powell": 5117,
      "affrey": 5118,
      "cabin": 5119,
      "pussy": 5120,
      "stitute": 5121,
      "remote": 5122,
      "chicken": 5123,
      "fortunately": 5124,
      "threaten": 5125,
      "convince": 5126,
      "disappointed": 5127,
      "particularly": 5128,
      "Plus": 5129,
      "Wickwire": 5130,
      "occurred": 5131,
      "Cyclo": 5132,
      "terribly": 5133,
      "Negroes": 5134,
      "symbol": 5135,
      "Cadillac": 5136,
      "depends": 5137,
      "bleeding": 5138,
      "GET": 5139,
      "religion": 5140,
      "divorce": 5141,
      "insulted": 5142,
      "several": 5143,
      "lliant": 5144,
      "extremely": 5145,
      "Liberty": 5146,
      "stroke": 5147,
      "Rocco": 5148,
      "Brother": 5149,
      "Larry": 5150,
      "Sweet": 5151,
      "equipment": 5152,
      "audience": 5153,
      "Irish": 5154,
      "ignore": 5155,
      "coincidence": 5156,
      "performan": 5157,
      "corporate": 5158,
      "detectives": 5159,
      "Gloria": 5160,
      "Lincoln": 5161,
      "Teasdale": 5162,
      "guarantee": 5163,
      "conscious": 5164,
      "McCaffrey": 5165,
      "Department": 5166,
      "Gentlemen": 5167,
      "Especially": 5168,
      "Gladys": 5169,
      "Jacob": 5170,
      "Kayleigh": 5171,
      "Tuesday": 5172,
      "Sebastian": 5173,
      "*!": 5174,
      "31": 5175,
      "AC": 5176,
      "Aye": 5177,
      "Bery": 5178,
      "BLA": 5179,
      "Cou": 5180,
      "Cur": 5181,
      "Cook": 5182,
      "Cross": 5183,
      "Dill": 5184,
      "Dark": 5185,
      "Fro": 5186,
      "Future": 5187,
      "Gal": 5188,
      "Hall": 5189,
      "Hallow": 5190,
      "IC": 5191,
      "Kess": 5192,
      "LD": 5193,
      "Lill": 5194,
      "Lang": 5195,
      "Lau": 5196,
      "MY": 5197,
      "Mass": 5198,
      "Might": 5199,
      "Mag": 5200,
      "Mim": 5201,
      "NE": 5202,
      "Nin": 5203,
      "Ned": 5204,
      "Navy": 5205,
      "NIG": 5206,
      "Oper": 5207,
      "Offic": 5208,
      "Pra": 5209,
      "Sun": 5210,
      "Sort": 5211,
      "Slow": 5212,
      "TU": 5213,
      "Tri": 5214,
      "Tread": 5215,
      "UN": 5216,
      "UST": 5217,
      "Yah": 5218,
      "Zee": 5219,
      "Zimm": 5220,
      "aid": 5221,
      "bi": 5222,
      "bshaw": 5223,
      "cart": 5224,
      "cable": 5225,
      "cceed": 5226,
      "din": 5227,
      "duck": 5228,
      "dign": 5229,
      "east": 5230,
      "fu": 5231,
      "fab": 5232,
      "fought": 5233,
      "fits": 5234,
      "harm": 5235,
      "iat": 5236,
      "iac": 5237,
      "iator": 5238,
      "junk": 5239,
      "link": 5240,
      "lation": 5241,
      "national": 5242,
      "ore": 5243,
      "pir": 5244,
      "punk": 5245,
      "papa": 5246,
      "rant": 5247,
      "rust": 5248,
      "south": 5249,
      "sisters": 5250,
      "tend": 5251,
      "tank": 5252,
      "vul": 5253,
      "vari": 5254,
      "witty": 5255,
      "yno": 5256,
      "erick": 5257,
      "erton": 5258,
      "anch": 5259,
      "tha": 5260,
      "ises": 5261,
      "engin": 5262,
      "enix": 5263,
      "inch": 5264,
      "asso": 5265,
      "onde": 5266,
      "attorney": 5267,
      "rear": 5268,
      "ream": 5269,
      "repair": 5270,
      "toms": 5271,
      "toler": 5272,
      "lling": 5273,
      "llium": 5274,
      "meat": 5275,
      "measure": 5276,
      "hatch": 5277,
      "beha": 5278,
      "ota": 5279,
      "anda": 5280,
      "altern": 5281,
      "stars": 5282,
      "stress": 5283,
      "lian": 5284,
      "limit": 5285,
      "oooo": 5286,
      "...\"<|": 5287,
      "weight": 5288,
      "chant": 5289,
      "chances": 5290,
      "ada": 5291,
      "---<|": 5292,
      "ceive": 5293,
      "Weather": 5294,
      "tick": 5295,
      "Heaven": 5296,
      "amp": 5297,
      "ament": 5298,
      "rode": 5299,
      "wanting": 5300,
      "loc": 5301,
      "locate": 5302,
      "shy": 5303,
      "sher": 5304,
      "tail": 5305,
      "rac": 5306,
      "raft": 5307,
      "noble": 5308,
      "fever": 5309,
      "depos": 5310,
      "decl": 5311,
      "device": 5312,
      "agement": 5313,
      "poster": 5314,
      "pointing": 5315,
      "manage": 5316,
      "sakes": 5317,
      "sacri": 5318,
      "butt": 5319,
      "butter": 5320,
      "max": 5321,
      "makin": 5322,
      "plat": 5323,
      "artist": 5324,
      "cago": 5325,
      "concept": 5326,
      "ilities": 5327,
      "erserk": 5328,
      "gear": 5329,
      "geek": 5330,
      "whore": 5331,
      "useful": 5332,
      "cox": 5333,
      "coordin": 5334,
      "shel": 5335,
      "bled": 5336,
      "trunk": 5337,
      "otherwise": 5338,
      "Going": 5339,
      "Gozer": 5340,
      "workin": 5341,
      "aches": 5342,
      "precious": 5343,
      "wore": 5344,
      "apt": 5345,
      "Myra": 5346,
      "Whose": 5347,
      "cheat": 5348,
      "emplo": 5349,
      "emperor": 5350,
      "blast": 5351,
      "fried": 5352,
      "torture": 5353,
      "Becky": 5354,
      "bug": 5355,
      "angers": 5356,
      "launch": 5357,
      "Reg": 5358,
      "Reyno": 5359,
      "Inter": 5360,
      "puts": 5361,
      "bru": 5362,
      "ella": 5363,
      "print": 5364,
      "succeed": 5365,
      "serving": 5366,
      "Somewhere": 5367,
      "Church": 5368,
      "discre": 5369,
      "States": 5370,
      "stays": 5371,
      "ruined": 5372,
      "clin": 5373,
      "cles": 5374,
      "clue": 5375,
      "leaves": 5376,
      "drey": 5377,
      "Need": 5378,
      "parti": 5379,
      "airline": 5380,
      "nerve": 5381,
      "Harvard": 5382,
      "phant": 5383,
      "available": 5384,
      "hurricane": 5385,
      "setting": 5386,
      "Art": 5387,
      "Commission": 5388,
      "driver": 5389,
      "strength": 5390,
      "Drink": 5391,
      "Brook": 5392,
      "mmm": 5393,
      "walks": 5394,
      "genius": 5395,
      "vior": 5396,
      "breaks": 5397,
      "Leon": 5398,
      "fireman": 5399,
      "croupi": 5400,
      "Both": 5401,
      "franc": 5402,
      "Uni": 5403,
      "United": 5404,
      "uba": 5405,
      "communic": 5406,
      "Newcom": 5407,
      "Chicago": 5408,
      "fifth": 5409,
      "Mean": 5410,
      "Meet": 5411,
      "highly": 5412,
      "Jeez": 5413,
      "buying": 5414,
      "dropped": 5415,
      "secure": 5416,
      "worthless": 5417,
      "Steve": 5418,
      "babe": 5419,
      "ballet": 5420,
      "messed": 5421,
      "ieri": 5422,
      "ughtered": 5423,
      "powerful": 5424,
      "Club": 5425,
      "Pete": 5426,
      "Holly": 5427,
      "patriot": 5428,
      "pleased": 5429,
      "trained": 5430,
      "followed": 5431,
      "While": 5432,
      "cameras": 5433,
      "ibly": 5434,
      "ONE": 5435,
      "atives": 5436,
      "distra": 5437,
      "distance": 5438,
      "universe": 5439,
      "Fourteen": 5440,
      "offered": 5441,
      "Prof": 5442,
      "magaz": 5443,
      "Indeed": 5444,
      "deserves": 5445,
      "climb": 5446,
      "statement": 5447,
      "Frederick": 5448,
      "vices": 5449,
      "purse": 5450,
      "package": 5451,
      "liter": 5452,
      "histor": 5453,
      "arranged": 5454,
      "Blacksmith": 5455,
      "Richie": 5456,
      "kicked": 5457,
      "African": 5458,
      "ERS": 5459,
      "Hardy": 5460,
      "Romeo": 5461,
      "current": 5462,
      "spoke": 5463,
      "remembers": 5464,
      "Russia": 5465,
      "placed": 5466,
      "baseball": 5467,
      "Alexander": 5468,
      "cigar": 5469,
      "flip": 5470,
      "drawing": 5471,
      "World": 5472,
      "loaded": 5473,
      "product": 5474,
      "advant": 5475,
      "property": 5476,
      "Murray": 5477,
      "fantasy": 5478,
      "fantastic": 5479,
      "lux": 5480,
      "lugg": 5481,
      "customer": 5482,
      "customers": 5483,
      "robbed": 5484,
      "explosive": 5485,
      "batter": 5486,
      "committee": 5487,
      "yelling": 5488,
      "arrangements": 5489,
      "seventeen": 5490,
      "designed": 5491,
      "Wilbur": 5492,
      "jury": 5493,
      "Rains": 5494,
      "Trubshaw": 5495,
      "animal": 5496,
      "skipper": 5497,
      "practically": 5498,
      "witnesses": 5499,
      "Hubley": 5500,
      "Audrey": 5501,
      "Pinback": 5502,
      "route": 5503,
      "guests": 5504,
      "breathing": 5505,
      "satisfied": 5506,
      "journey": 5507,
      "lunatic": 5508,
      "Thomas": 5509,
      "graduate": 5510,
      "Valley": 5511,
      "barely": 5512,
      "schedule": 5513,
      "granted": 5514,
      "results": 5515,
      "Pinkerton": 5516,
      "target": 5517,
      "wreck": 5518,
      "revolution": 5519,
      "miracle": 5520,
      "laser": 5521,
      "episode": 5522,
      "undressed": 5523,
      "salesman": 5524,
      "activities": 5525,
      "Lucky": 5526,
      "cooperate": 5527,
      "precisely": 5528,
      "material": 5529,
      "salvage": 5530,
      "Doug": 5531,
      "Phoenix": 5532,
      "Zuul": 5533,
      "rescue": 5534,
      "exercise": 5535,
      "newspapers": 5536,
      "counselor": 5537,
      "Cyclops": 5538,
      "Beryllium": 5539,
      "Dillon": 5540,
      "Halloween": 5541,
      "Kessler": 5542,
      "Lillian": 5543,
      "Mimms": 5544,
      "Treadstone": 5545,
      "engines": 5546,
      "deposit": 5547,
      "Reynolds": 5548,
      "Hollywood": 5549,
      "45": 5550,
      "48": 5551,
      "??<|": 5552,
      "Ash": 5553,
      "ALL": 5554,
      "Again": 5555,
      "Bank": 5556,
      "Bones": 5557,
      "Billy": 5558,
      "Buddy": 5559,
      "CH": 5560,
      "CO": 5561,
      "Cat": 5562,
      "Clear": 5563,
      "Coun": 5564,
      "Da": 5565,
      "Dist": 5566,
      "Dug": 5567,
      "Dino": 5568,
      "DNA": 5569,
      "Emer": 5570,
      "Flo": 5571,
      "Found": 5572,
      "Gi": 5573,
      "Gam": 5574,
      "Gate": 5575,
      "Hop": 5576,
      "IM": 5577,
      "Jud": 5578,
      "Ker": 5579,
      "Kate": 5580,
      "Low": 5581,
      "Lex": 5582,
      "Lily": 5583,
      "Much": 5584,
      "Ni": 5585,
      "Night": 5586,
      "Nig": 5587,
      "Oleg": 5588,
      "PA": 5589,
      "Pass": 5590,
      "Por": 5591,
      "Pump": 5592,
      "Rat": 5593,
      "Row": 5594,
      "SO": 5595,
      "Sus": 5596,
      "Set": 5597,
      "Sally": 5598,
      "Sund": 5599,
      "Sla": 5600,
      "Saw": 5601,
      "Sug": 5602,
      "Sister": 5603,
      "Spen": 5604,
      "SHE": 5605,
      "Ty": 5606,
      "Tsa": 5607,
      "Tim": 5608,
      "Told": 5609,
      "Vig": 5610,
      "Vol": 5611,
      "Valent": 5612,
      "Word": 5613,
      "Women": 5614,
      "Yup": 5615,
      "Year": 5616,
      "bis": 5617,
      "bay": 5618,
      "bread": 5619,
      "bang": 5620,
      "bage": 5621,
      "bird": 5622,
      "billion": 5623,
      "chat": 5624,
      "cro": 5625,
      "dust": 5626,
      "dull": 5627,
      "fus": 5628,
      "fare": 5629,
      "fford": 5630,
      "gic": 5631,
      "gross": 5632,
      "hra": 5633,
      "hull": 5634,
      "ifor": 5635,
      "lag": 5636,
      "lap": 5637,
      "mou": 5638,
      "mous": 5639,
      "mort": 5640,
      "nia": 5641,
      "py": 5642,
      "pink": 5643,
      "pended": 5644,
      "rush": 5645,
      "tan": 5646,
      "tune": 5647,
      "trem": 5648,
      "vable": 5649,
      "wave": 5650,
      "witch": 5651,
      "winner": 5652,
      "xious": 5653,
      "eron": 5654,
      "ermin": 5655,
      "erless": 5656,
      "ango": 5657,
      "ancy": 5658,
      "thou": 5659,
      "asha": 5660,
      "onia": 5661,
      "atmo": 5662,
      "rehear": 5663,
      "tori": 5664,
      "toast": 5665,
      "llis": 5666,
      "iter": 5667,
      "armor": 5668,
      "aria": 5669,
      "leaf": 5670,
      "bel": 5671,
      "beams": 5672,
      "otic": 5673,
      "otton": 5674,
      "haust": 5675,
      "sey": 5676,
      "alo": 5677,
      "alie": 5678,
      "sters": 5679,
      "stalk": 5680,
      "stage": 5681,
      "stable": 5682,
      "stret": 5683,
      "steno": 5684,
      "lia": 5685,
      "lips": 5686,
      "forbid": 5687,
      "rict": 5688,
      "rifle": 5689,
      "wives": 5690,
      "chy": 5691,
      "chol": 5692,
      "chasing": 5693,
      "--?<|": 5694,
      "golf": 5695,
      "government": 5696,
      "absur": 5697,
      "myster": 5698,
      "nez": 5699,
      "neut": 5700,
      "iro": 5701,
      "iron": 5702,
      "irmative": 5703,
      "cance": 5704,
      "hoot": 5705,
      "holy": 5706,
      "upper": 5707,
      "Hear": 5708,
      "someplace": 5709,
      "justice": 5710,
      "loving": 5711,
      "unning": 5712,
      "unfair": 5713,
      "illa": 5714,
      "pee": 5715,
      "deb": 5716,
      "defe": 5717,
      "decks": 5718,
      "bored": 5719,
      "pod": 5720,
      "pol": 5721,
      "guit": 5722,
      "ppin": 5723,
      "ppers": 5724,
      "navig": 5725,
      "essor": 5726,
      "ures": 5727,
      "cafe": 5728,
      "caps": 5729,
      "causing": 5730,
      "romantic": 5731,
      "conver": 5732,
      "ila": 5733,
      "igent": 5734,
      "exception": 5735,
      "exhaust": 5736,
      "dya": 5737,
      "Sol": 5738,
      "faces": 5739,
      "quis": 5740,
      "quote": 5741,
      "spin": 5742,
      "berry": 5743,
      "perio": 5744,
      "obs": 5745,
      "woke": 5746,
      "overnight": 5747,
      "Justice": 5748,
      "scal": 5749,
      "scum": 5750,
      "scient": 5751,
      "reads": 5752,
      "cheer": 5753,
      "Goddammit": 5754,
      "musta": 5755,
      "mustn": 5756,
      "dime": 5757,
      "ademy": 5758,
      "Reggie": 5759,
      "Invisible": 5760,
      "helps": 5761,
      "headed": 5762,
      "carefully": 5763,
      "badly": 5764,
      "suits": 5765,
      "waitin": 5766,
      "mary": 5767,
      "market": 5768,
      "marrying": 5769,
      "marvelous": 5770,
      "matic": 5771,
      "thrown": 5772,
      "posite": 5773,
      "understands": 5774,
      "handy": 5775,
      "studio": 5776,
      "Shark": 5777,
      "discovered": 5778,
      "Strik": 5779,
      "gler": 5780,
      "options": 5781,
      "amed": 5782,
      "interview": 5783,
      "interrog": 5784,
      "izz": 5785,
      "broad": 5786,
      "shoe": 5787,
      "Neither": 5788,
      "Negative": 5789,
      "plays": 5790,
      "parking": 5791,
      "parties": 5792,
      "breaking": 5793,
      "tical": 5794,
      "Anywhere": 5795,
      "shake": 5796,
      "Deb": 5797,
      "joking": 5798,
      "mothers": 5799,
      "avoid": 5800,
      "payroll": 5801,
      "settled": 5802,
      "awn": 5803,
      "awfully": 5804,
      "Anim": 5805,
      "apple": 5806,
      "Computer": 5807,
      "anced": 5808,
      "singing": 5809,
      "drinks": 5810,
      "possession": 5811,
      "sweep": 5812,
      "borne": 5813,
      "center": 5814,
      "Brown": 5815,
      "Bridge": 5816,
      "wondered": 5817,
      "Peerless": 5818,
      "visitor": 5819,
      "champ": 5820,
      "viere": 5821,
      "thousands": 5822,
      "brings": 5823,
      "charges": 5824,
      "beauty": 5825,
      "cris": 5826,
      "crat": 5827,
      "Atl": 5828,
      "corridor": 5829,
      "honour": 5830,
      "Marion": 5831,
      "Marshall": 5832,
      "Unfortunately": 5833,
      "penis": 5834,
      "Ahh": 5835,
      "liner": 5836,
      "opened": 5837,
      "eleven": 5838,
      "speaks": 5839,
      "Frankenstein": 5840,
      "trigger": 5841,
      "higher": 5842,
      "solve": 5843,
      "Bloom": 5844,
      "Blaine": 5845,
      "worthy": 5846,
      "logist": 5847,
      "passing": 5848,
      "trusted": 5849,
      "dressing": 5850,
      "dude": 5851,
      "signal": 5852,
      "signature": 5853,
      "burgl": 5854,
      "Grab": 5855,
      "Raymond": 5856,
      "policeman": 5857,
      "legend": 5858,
      "games": 5859,
      "confir": 5860,
      "confess": 5861,
      "Carter": 5862,
      "Riviere": 5863,
      "falling": 5864,
      "eighteen": 5865,
      "versity": 5866,
      "officers": 5867,
      "foolish": 5868,
      "porn": 5869,
      "porno": 5870,
      "ounce": 5871,
      "calcul": 5872,
      "honeymoon": 5873,
      "response": 5874,
      "suspended": 5875,
      "halluc": 5876,
      "destru": 5877,
      "destiny": 5878,
      "malfunction": 5879,
      "experi": 5880,
      "experiment": 5881,
      "secrets": 5882,
      "Trans": 5883,
      "imeter": 5884,
      "Dunwitty": 5885,
      "Norbert": 5886,
      "magnet": 5887,
      "operation": 5888,
      "leader": 5889,
      "bothering": 5890,
      "Edward": 5891,
      "basis": 5892,
      "viously": 5893,
      "considering": 5894,
      "squee": 5895,
      "attacked": 5896,
      "grove": 5897,
      "growing": 5898,
      "hoped": 5899,
      "telephone": 5900,
      "personality": 5901,
      "Speak": 5902,
      "Adams": 5903,
      "LaRiviere": 5904,
      "apology": 5905,
      "Califor": 5906,
      "heroes": 5907,
      "GOD": 5908,
      "begins": 5909,
      "hamburger": 5910,
      "Simple": 5911,
      "digital": 5912,
      "supernatural": 5913,
      "Hardly": 5914,
      "Strader": 5915,
      "curse": 5916,
      "odds": 5917,
      "cousins": 5918,
      "soup": 5919,
      "suggestion": 5920,
      "brief": 5921,
      "brilliant": 5922,
      "connect": 5923,
      "suffering": 5924,
      "Firefly": 5925,
      "hookers": 5926,
      "blamed": 5927,
      "transit": 5928,
      "custody": 5929,
      "Kristen": 5930,
      "pupils": 5931,
      "reminds": 5932,
      "violin": 5933,
      "embarrassed": 5934,
      "Clifford": 5935,
      "Monday": 5936,
      "Nathan": 5937,
      "Otherwise": 5938,
      "hidden": 5939,
      "title": 5940,
      "Mexican": 5941,
      "Salieri": 5942,
      "prepare": 5943,
      "medication": 5944,
      "Grandma": 5945,
      "SHUT": 5946,
      "Suppose": 5947,
      "photograph": 5948,
      "believable": 5949,
      "political": 5950,
      "politics": 5951,
      "LEA": 5952,
      "animals": 5953,
      "survived": 5954,
      "adopt": 5955,
      "Cameron": 5956,
      "religious": 5957,
      "divorced": 5958,
      "original": 5959,
      "negotiate": 5960,
      "BALL": 5961,
      "benef": 5962,
      "frame": 5963,
      "spirit": 5964,
      "breathe": 5965,
      "faggot": 5966,
      "snap": 5967,
      "Buy": 5968,
      "recommend": 5969,
      "admire": 5970,
      "poisoned": 5971,
      "Straight": 5972,
      "Angeles": 5973,
      "Obviously": 5974,
      "betrayed": 5975,
      "construction": 5976,
      "intention": 5977,
      "protection": 5978,
      "shield": 5979,
      "detonate": 5980,
      "twisted": 5981,
      "Consider": 5982,
      "HAVE": 5983,
      "Matthew": 5984,
      "recently": 5985,
      "escaped": 5986,
      "Italian": 5987,
      "emotional": 5988,
      "grenade": 5989,
      "Cosgrove": 5990,
      "occupied": 5991,
      "Flea": 5992,
      "Personally": 5993,
      "darlin": 5994,
      "xygen": 5995,
      "analysis": 5996,
      "convict": 5997,
      "scratch": 5998,
      "elevator": 5999,
      "Japanese": 6000,
      "Baby": 6001,
      "Gonna": 6002,
      "Natalie": 6003,
      "Totally": 6004,
      "panties": 6005,
      "slov": 6006,
      "intelligent": 6007,
      "disgusting": 6008,
      "Machine": 6009,
      "Deckard": 6010,
      "performance": 6011,
      "NIGG": 6012,
      "associate": 6013,
      "Brooklyn": 6014,
      "croupier": 6015,
      "francs": 6016,
      "Sunday": 6017,
      "Tsavo": 6018,
      "atmosphere": 6019,
      "stenographer": 6020,
      "absurd": 6021,
      "Striker": 6022,
      "interrogation": 6023,
      "California": 6024,
      "!\"": 6025,
      ".?<|": 6026,
      "25": 6027,
      "200": 6028,
      "AL": 6029,
      "AS": 6030,
      "AY": 6031,
      "BE": 6032,
      "BI": 6033,
      "Bus": 6034,
      "Book": 6035,
      "Bart": 6036,
      "Bomb": 6037,
      "CB": 6038,
      "Cus": 6039,
      "Cent": 6040,
      "Cold": 6041,
      "Clock": 6042,
      "Cates": 6043,
      "Candy": 6044,
      "DJ": 6045,
      "Des": 6046,
      "Dri": 6047,
      "Dear": 6048,
      "Denn": 6049,
      "ES": 6050,
      "EV": 6051,
      "Fi": 6052,
      "Fl": 6053,
      "Fill": 6054,
      "Full": 6055,
      "Funny": 6056,
      "Ferr": 6057,
      "Gun": 6058,
      "Gene": 6059,
      "Ghost": 6060,
      "Gai": 6061,
      "Ira": 6062,
      "Imag": 6063,
      "Inez": 6064,
      "Jere": 6065,
      "Jump": 6066,
      "Jones": 6067,
      "Jane": 6068,
      "JUST": 6069,
      "Kong": 6070,
      "Kiss": 6071,
      "LP": 6072,
      "LY": 6073,
      "Lad": 6074,
      "Light": 6075,
      "Lear": 6076,
      "Loose": 6077,
      "Landy": 6078,
      "Lamb": 6079,
      "Men": 6080,
      "Mil": 6081,
      "Mac": 6082,
      "Mob": 6083,
      "Mont": 6084,
      "Miam": 6085,
      "MBALL": 6086,
      "NT": 6087,
      "Ner": 6088,
      "Nurse": 6089,
      "Ow": 6090,
      "Ove": 6091,
      "Oscar": 6092,
      "PO": 6093,
      "Pim": 6094,
      "Pris": 6095,
      "RS": 6096,
      "Rem": 6097,
      "Sat": 6098,
      "Spl": 6099,
      "Sum": 6100,
      "Sac": 6101,
      "Scare": 6102,
      "Spain": 6103,
      "Swed": 6104,
      "Tough": 6105,
      "Thad": 6106,
      "Trying": 6107,
      "Tiger": 6108,
      "US": 6109,
      "Us": 6110,
      "Win": 6111,
      "Wake": 6112,
      "Yan": 6113,
      "Yell": 6114,
      "bs": 6115,
      "bend": 6116,
      "bait": 6117,
      "bump": 6118,
      "cies": 6119,
      "cular": 6120,
      "dork": 6121,
      "dates": 6122,
      "dirt": 6123,
      "ec": 6124,
      "eu": 6125,
      "eous": 6126,
      "equal": 6127,
      "foo": 6128,
      "ffe": 6129,
      "ffo": 6130,
      "fice": 6131,
      "fting": 6132,
      "fru": 6133,
      "fles": 6134,
      "gage": 6135,
      "gau": 6136,
      "hits": 6137,
      "ich": 6138,
      "ially": 6139,
      "iman": 6140,
      "kers": 6141,
      "mall": 6142,
      "mill": 6143,
      "mia": 6144,
      "moun": 6145,
      "mallow": 6146,
      "nam": 6147,
      "nies": 6148,
      "nical": 6149,
      "nigg": 6150,
      "nasty": 6151,
      "oc": 6152,
      "oy": 6153,
      "oath": 6154,
      "obey": 6155,
      "oxygen": 6156,
      "ping": 6157,
      "pow": 6158,
      "pse": 6159,
      "pian": 6160,
      "pitch": 6161,
      "pals": 6162,
      "rat": 6163,
      "rink": 6164,
      "tall": 6165,
      "tour": 6166,
      "ued": 6167,
      "uce": 6168,
      "vant": 6169,
      "var": 6170,
      "wha": 6171,
      "wide": 6172,
      "waves": 6173,
      "xim": 6174,
      "yy": 6175,
      "yard": 6176,
      "anxious": 6177,
      "tho": 6178,
      "thir": 6179,
      "ases": 6180,
      "aside": 6181,
      "uses": 6182,
      "inn": 6183,
      "inct": 6184,
      "invent": 6185,
      "assholes": 6186,
      "oned": 6187,
      "reaction": 6188,
      "represent": 6189,
      "toss": 6190,
      "llo": 6191,
      "meal": 6192,
      "metic": 6193,
      "members": 6194,
      "itation": 6195,
      "orange": 6196,
      "owed": 6197,
      "hee": 6198,
      "argu": 6199,
      "aries": 6200,
      "lect": 6201,
      "leag": 6202,
      "bec": 6203,
      "edict": 6204,
      "haha": 6205,
      "iding": 6206,
      "idal": 6207,
      "idential": 6208,
      "keley": 6209,
      "stake": 6210,
      "stones": 6211,
      "lime": 6212,
      "oops": 6213,
      "oovy": 6214,
      "...\"": 6215,
      "rier": 6216,
      "chi": 6217,
      "chow": 6218,
      "ades": 6219,
      "adise": 6220,
      "adult": 6221,
      "uster": 6222,
      "celer": 6223,
      "oma": 6224,
      "abuse": 6225,
      "mystery": 6226,
      "tier": 6227,
      "tims": 6228,
      "donkey": 6229,
      "neat": 6230,
      "wasting": 6231,
      "wasted": 6232,
      "holic": 6233,
      "Head": 6234,
      "therapy": 6235,
      "someday": 6236,
      "roix": 6237,
      "rocks": 6238,
      "terror": 6239,
      "lover": 6240,
      "union": 6241,
      "units": 6242,
      "unfortunate": 6243,
      "shanks": 6244,
      "moves": 6245,
      "rah": 6246,
      "noise": 6247,
      "temp": 6248,
      "sole": 6249,
      "soci": 6250,
      "social": 6251,
      "deus": 6252,
      "delight": 6253,
      "depressed": 6254,
      "boards": 6255,
      "acks": 6256,
      "aging": 6257,
      "pops": 6258,
      "ician": 6259,
      "mankind": 6260,
      "ppa": 6261,
      "map": 6262,
      "maker": 6263,
      "nap": 6264,
      "nail": 6265,
      "eler": 6266,
      "elphia": 6267,
      "pla": 6268,
      "plates": 6269,
      "plastic": 6270,
      "conscience": 6271,
      "constant": 6272,
      "conclus": 6273,
      "owner": 6274,
      "igan": 6275,
      "asts": 6276,
      "ounding": 6277,
      "goodnight": 6278,
      "comput": 6279,
      "commer": 6280,
      "cos": 6281,
      "core": 6282,
      "shed": 6283,
      "talks": 6284,
      "troops": 6285,
      "umbo": 6286,
      "provide": 6287,
      "probie": 6288,
      "focus": 6289,
      "spark": 6290,
      "speaking": 6291,
      "lets": 6292,
      "whenever": 6293,
      "aces": 6294,
      "accom": 6295,
      "according": 6296,
      "perimeter": 6297,
      "Shep": 6298,
      "presu": 6299,
      "prepar": 6300,
      "preach": 6301,
      "shoulda": 6302,
      "scen": 6303,
      "cheating": 6304,
      "grid": 6305,
      "Bebe": 6306,
      "Bella": 6307,
      "writer": 6308,
      "buffo": 6309,
      "Looking": 6310,
      "dipl": 6311,
      "division": 6312,
      "inski": 6313,
      "laug": 6314,
      "trave": 6315,
      "monkey": 6316,
      "pride": 6317,
      "serial": 6318,
      "mature": 6319,
      "shithead": 6320,
      "Seth": 6321,
      "realized": 6322,
      "posing": 6323,
      "Chink": 6324,
      "minds": 6325,
      "disaster": 6326,
      "hears": 6327,
      "option": 6328,
      "opposite": 6329,
      "retard": 6330,
      "resign": 6331,
      "ruin": 6332,
      "clerk": 6333,
      "finest": 6334,
      "Exposition": 6335,
      "shopping": 6336,
      "paran": 6337,
      "Robert": 6338,
      "nerable": 6339,
      "shaking": 6340,
      "Although": 6341,
      "motherfucker": 6342,
      "ggle": 6343,
      "smoo": 6344,
      "smiling": 6345,
      "pays": 6346,
      "sets": 6347,
      "Ann": 6348,
      "desp": 6349,
      "barrel": 6350,
      "hundreds": 6351,
      "Asga": 6352,
      "sington": 6353,
      "drinkin": 6354,
      "Johnson": 6355,
      "shots": 6356,
      "Brandon": 6357,
      "interests": 6358,
      "ladelphia": 6359,
      "Core": 6360,
      "chap": 6361,
      "chamber": 6362,
      "challen": 6363,
      "lower": 6364,
      "holds": 6365,
      "uded": 6366,
      "graphy": 6367,
      "gracious": 6368,
      "sounded": 6369,
      "choices": 6370,
      "crook": 6371,
      "syn": 6372,
      "steel": 6373,
      "Boston": 6374,
      "Marg": 6375,
      "Uncle": 6376,
      "vod": 6377,
      "voy": 6378,
      "penny": 6379,
      "formal": 6380,
      "effort": 6381,
      "News": 6382,
      "horn": 6383,
      "horny": 6384,
      "solid": 6385,
      "attend": 6386,
      "secured": 6387,
      "risa": 6388,
      "cripp": 6389,
      "learning": 6390,
      "passeng": 6391,
      "importance": 6392,
      "bail": 6393,
      "dresser": 6394,
      "dudes": 6395,
      "messages": 6396,
      "signed": 6397,
      "clearly": 6398,
      "Clar": 6399,
      "draft": 6400,
      "complex": 6401,
      "brave": 6402,
      "pulling": 6403,
      "engage": 6404,
      "films": 6405,
      "Conf": 6406,
      "falls": 6407,
      "testing": 6408,
      "hairy": 6409,
      "staring": 6410,
      "grandfather": 6411,
      "porter": 6412,
      "capital": 6413,
      "Germany": 6414,
      "valier": 6415,
      "blows": 6416,
      "facts": 6417,
      "slaves": 6418,
      "Sampson": 6419,
      "float": 6420,
      "mistaken": 6421,
      "concert": 6422,
      "miser": 6423,
      "teaching": 6424,
      "teachers": 6425,
      "Dorsey": 6426,
      "Prince": 6427,
      "Small": 6428,
      "leading": 6429,
      "rolled": 6430,
      "clip": 6431,
      "slowly": 6432,
      "profit": 6433,
      "phical": 6434,
      "sticks": 6435,
      "Freddie": 6436,
      "Berkeley": 6437,
      "bastards": 6438,
      "garage": 6439,
      "victory": 6440,
      "telegram": 6441,
      "fellas": 6442,
      "Spico": 6443,
      "impressive": 6444,
      "Chevalier": 6445,
      "crossed": 6446,
      "Charles": 6447,
      "circu": 6448,
      "digging": 6449,
      "spoiled": 6450,
      "sucker": 6451,
      "Janine": 6452,
      "basement": 6453,
      "steps": 6454,
      "psychiat": 6455,
      "Adcox": 6456,
      "fancy": 6457,
      "uffy": 6458,
      "active": 6459,
      "activate": 6460,
      "splendid": 6461,
      "Sixty": 6462,
      "slime": 6463,
      "suffered": 6464,
      "farmers": 6465,
      "Longshanks": 6466,
      "Fifteen": 6467,
      "Third": 6468,
      "stitution": 6469,
      "generate": 6470,
      "flower": 6471,
      "puppy": 6472,
      "healthy": 6473,
      "ungle": 6474,
      "commitment": 6475,
      "physics": 6476,
      "Sonrisa": 6477,
      "pushing": 6478,
      "titude": 6479,
      "testi": 6480,
      "yellow": 6481,
      "strike": 6482,
      "delivered": 6483,
      "believing": 6484,
      "terrific": 6485,
      "defend": 6486,
      "electro": 6487,
      "screaming": 6488,
      "KIMBALL": 6489,
      "loyd": 6490,
      "practical": 6491,
      "Philadelphia": 6492,
      "Terrible": 6493,
      "cigarettes": 6494,
      "Courtney": 6495,
      "Understand": 6496,
      "Claire": 6497,
      "System": 6498,
      "routine": 6499,
      "concentration": 6500,
      "concentrate": 6501,
      "Resounding": 6502,
      "Turk": 6503,
      "beneath": 6504,
      "beside": 6505,
      "received": 6506,
      "Wonderful": 6507,
      "Basil": 6508,
      "Delac": 6509,
      "Rae": 6510,
      "THIS": 6511,
      "homicide": 6512,
      "slightly": 6513,
      "slightest": 6514,
      "whiskey": 6515,
      "Webber": 6516,
      "successful": 6517,
      "Careful": 6518,
      "Lydia": 6519,
      "diction": 6520,
      "recommended": 6521,
      "abortion": 6522,
      "philosophy": 6523,
      "According": 6524,
      "Kensington": 6525,
      "puke": 6526,
      "holiday": 6527,
      "demonstrate": 6528,
      "Coastguard": 6529,
      "disappearance": 6530,
      "Josephine": 6531,
      "Burke": 6532,
      "sinking": 6533,
      "Wrong": 6534,
      "eventually": 6535,
      "narrow": 6536,
      "predict": 6537,
      "escort": 6538,
      "education": 6539,
      "alcoholic": 6540,
      "motorcy": 6541,
      "Golden": 6542,
      "Moonan": 6543,
      "DAMN": 6544,
      "Wheeler": 6545,
      "jammed": 6546,
      "retire": 6547,
      "describe": 6548,
      "Secretary": 6549,
      "Seventy": 6550,
      "frankly": 6551,
      "Officer": 6552,
      "dignity": 6553,
      "anchor": 6554,
      "behavior": 6555,
      "coordinates": 6556,
      "shelter": 6557,
      "clinic": 6558,
      "Commissioner": 6559,
      "University": 6560,
      "Professor": 6561,
      "historical": 6562,
      "Dugan": 6563,
      "Hopkins": 6564,
      "Pumpkin": 6565,
      "Sugai": 6566,
      "Spengler": 6567,
      "Valentine": 6568,
      "ashamed": 6569,
      "exhausted": 6570,
      "Dennis": 6571,
      "Ferrari": 6572,
      "Ghostbust": 6573,
      "Iraq": 6574,
      "Imagine": 6575,
      "Jeremia": 6576,
      "Miami": 6577,
      "Oveur": 6578,
      "Thaddeus": 6579,
      "Yanke": 6580,
      "thirteen": 6581,
      "invented": 6582,
      "Asgaard": 6583,
      "challenge": 6584,
      "passengers": 6585,
      "Spicoli": 6586,
      "psychiatrist": 6587,
      "Jeremiah": 6588,
      "'...<|": 6589,
      "*,": 6590,
      "*.<|": 6591,
      ",<|": 6592,
      "38": 6593,
      "3r": 6594,
      "78": 6595,
      "AF": 6596,
      "Age": 6597,
      "Amen": 6598,
      "BM": 6599,
      "Bre": 6600,
      "Bra": 6601,
      "Burn": 6602,
      "Bless": 6603,
      "Blow": 6604,
      "Bird": 6605,
      "Birth": 6606,
      "Cr": 6607,
      "Clo": 6608,
      "Cra": 6609,
      "CAN": 6610,
      "Count": 6611,
      "Cuba": 6612,
      "Done": 6613,
      "Dif": 6614,
      "DON": 6615,
      "Emil": 6616,
      "Easter": 6617,
      "Fam": 6618,
      "Fear": 6619,
      "Face": 6620,
      "FBI": 6621,
      "GH": 6622,
      "Ga": 6623,
      "Gra": 6624,
      "Gret": 6625,
      "Gwen": 6626,
      "Hound": 6627,
      "Having": 6628,
      "Hung": 6629,
      "IL": 6630,
      "ION": 6631,
      "ILL": 6632,
      "Kno": 6633,
      "Key": 6634,
      "Kitty": 6635,
      "LI": 6636,
      "Lake": 6637,
      "Loom": 6638,
      "Lots": 6639,
      "Lady": 6640,
      "Main": 6641,
      "Mum": 6642,
      "Memp": 6643,
      "Miles": 6644,
      "Mhra": 6645,
      "NY": 6646,
      "Nex": 6647,
      "Naz": 6648,
      "NING": 6649,
      "Nonsense": 6650,
      "OF": 6651,
      "Os": 6652,
      "Off": 6653,
      "Ple": 6654,
      "Pay": 6655,
      "Port": 6656,
      "Pol": 6657,
      "Pame": 6658,
      "Pier": 6659,
      "RA": 6660,
      "Rol": 6661,
      "ROK": 6662,
      "Randy": 6663,
      "Si": 6664,
      "Swi": 6665,
      "Sad": 6666,
      "Smo": 6667,
      "Sel": 6668,
      "Sven": 6669,
      "Squ": 6670,
      "Sty": 6671,
      "Side": 6672,
      "Sav": 6673,
      "Smell": 6674,
      "Signor": 6675,
      "Shoot": 6676,
      "Top": 6677,
      "Taking": 6678,
      "Val": 6679,
      "Vel": 6680,
      "Wis": 6681,
      "Wat": 6682,
      "Wed": 6683,
      "Wha": 6684,
      "Wal": 6685,
      "Wind": 6686,
      "Whad": 6687,
      "Wanna": 6688,
      "Yale": 6689,
      "Zin": 6690,
      "aur": 6691,
      "ael": 6692,
      "bine": 6693,
      "cere": 6694,
      "cad": 6695,
      "cie": 6696,
      "cough": 6697,
      "crop": 6698,
      "dd": 6699,
      "dor": 6700,
      "dive": 6701,
      "dil": 6702,
      "dum": 6703,
      "eth": 6704,
      "fs": 6705,
      "fans": 6706,
      "fuel": 6707,
      "gan": 6708,
      "ghe": 6709,
      "gall": 6710,
      "gine": 6711,
      "hoo": 6712,
      "hous": 6713,
      "ivity": 6714,
      "lab": 6715,
      "mun": 6716,
      "muck": 6717,
      "mart": 6718,
      "mig": 6719,
      "mister": 6720,
      "msayin": 6721,
      "nom": 6722,
      "nard": 6723,
      "nig": 6724,
      "pist": 6725,
      "pone": 6726,
      "pany": 6727,
      "punch": 6728,
      "rend": 6729,
      "rome": 6730,
      "rare": 6731,
      "range": 6732,
      "site": 6733,
      "sity": 6734,
      "spect": 6735,
      "sinc": 6736,
      "swall": 6737,
      "slob": 6738,
      "tab": 6739,
      "tent": 6740,
      "tasty": 6741,
      "uri": 6742,
      "ucer": 6743,
      "vam": 6744,
      "vitch": 6745,
      "vote": 6746,
      "wra": 6747,
      "witt": 6748,
      "wins": 6749,
      "wrap": 6750,
      "ximo": 6751,
      "yce": 6752,
      "zburg": 6753,
      "anium": 6754,
      "thur": 6755,
      "threw": 6756,
      "ening": 6757,
      "asil": 6758,
      "usel": 6759,
      "init": 6760,
      "infer": 6761,
      "anti": 6762,
      "antenna": 6763,
      "assle": 6764,
      "assistance": 6765,
      "onation": 6766,
      "onder": 6767,
      "rell": 6768,
      "reve": 6769,
      "rema": 6770,
      "release": 6771,
      "retired": 6772,
      "requi": 6773,
      "review": 6774,
      "revenge": 6775,
      "tox": 6776,
      "tower": 6777,
      "media": 6778,
      "mescal": 6779,
      "ita": 6780,
      "itia": 6781,
      "itches": 6782,
      "orbit": 6783,
      "ows": 6784,
      "veill": 6785,
      "hem": 6786,
      "heir": 6787,
      "hemor": 6788,
      "arson": 6789,
      "arily": 6790,
      "begun": 6791,
      "below": 6792,
      "belly": 6793,
      "oting": 6794,
      "aya": 6795,
      "Young": 6796,
      "havin": 6797,
      "andal": 6798,
      "alike": 6799,
      "alert": 6800,
      "stam": 6801,
      "cken": 6802,
      "eter": 6803,
      "eteen": 6804,
      "lim": 6805,
      "nowitz": 6806,
      "utal": 6807,
      "utch": 6808,
      "outrage": 6809,
      "outfit": 6810,
      "verage": 6811,
      "forth": 6812,
      "ril": 6813,
      "ripped": 6814,
      "rical": 6815,
      "rific": 6816,
      "choo": 6817,
      "adjust": 6818,
      "administration": 6819,
      "adventure": 6820,
      "ustain": 6821,
      "knowwhatI": 6822,
      "goat": 6823,
      "abl": 6824,
      "abot": 6825,
      "abandon": 6826,
      "tific": 6827,
      "nephe": 6828,
      "nelius": 6829,
      "Theo": 6830,
      "Hewitt": 6831,
      "ammun": 6832,
      "thern": 6833,
      "rol": 6834,
      "roit": 6835,
      "roid": 6836,
      "uncomfortable": 6837,
      "unbelievable": 6838,
      "shout": 6839,
      "shmallow": 6840,
      "ify": 6841,
      "tag": 6842,
      "tage": 6843,
      "takin": 6844,
      "rags": 6845,
      "Though": 6846,
      "nobles": 6847,
      "anyhow": 6848,
      "soph": 6849,
      "urer": 6850,
      "ural": 6851,
      "worries": 6852,
      "deer": 6853,
      "demo": 6854,
      "delay": 6855,
      "depressing": 6856,
      "hypo": 6857,
      "acked": 6858,
      "poet": 6859,
      "poem": 6860,
      "icy": 6861,
      "manners": 6862,
      "saucer": 6863,
      "Ohhh": 6864,
      "naive": 6865,
      "arts": 6866,
      "establ": 6867,
      "conven": 6868,
      "ulate": 6869,
      "iler": 6870,
      "express": 6871,
      "examin": 6872,
      "gey": 6873,
      "useum": 6874,
      "Dog": 6875,
      "tool": 6876,
      "tools": 6877,
      "colate": 6878,
      "ittin": 6879,
      "however": 6880,
      "umph": 6881,
      "provo": 6882,
      "prostitute": 6883,
      "happiness": 6884,
      "fucks": 6885,
      "sper": 6886,
      "spread": 6887,
      "spots": 6888,
      "bery": 6889,
      "berstam": 6890,
      "acid": 6891,
      "wherever": 6892,
      "callin": 6893,
      "stops": 6894,
      "Therefore": 6895,
      "Wherever": 6896,
      "affect": 6897,
      "affair": 6898,
      "appointing": 6899,
      "scow": 6900,
      "scam": 6901,
      "scrap": 6902,
      "scrip": 6903,
      "selfish": 6904,
      "cheated": 6905,
      "blade": 6906,
      "blonde": 6907,
      "tors": 6908,
      "reek": 6909,
      "groom": 6910,
      "ishing": 6911,
      "buus": 6912,
      "actress": 6913,
      "thoughts": 6914,
      "dip": 6915,
      "diag": 6916,
      "angel": 6917,
      "fires": 6918,
      "lame": 6919,
      "Reich": 6920,
      "Inn": 6921,
      "aska": 6922,
      "askin": 6923,
      "intended": 6924,
      "traum": 6925,
      "trapped": 6926,
      "tracks": 6927,
      "brown": 6928,
      "brush": 6929,
      "aker": 6930,
      "aked": 6931,
      "Yours": 6932,
      "drank": 6933,
      "drum": 6934,
      "headquarters": 6935,
      "ellar": 6936,
      "mens": 6937,
      "badge": 6938,
      "prints": 6939,
      "services": 6940,
      "Joyce": 6941,
      "Somehow": 6942,
      "cars": 6943,
      "cile": 6944,
      "civil": 6945,
      "stud": 6946,
      "studies": 6947,
      "studying": 6948,
      "Shh": 6949,
      "disposal": 6950,
      "ols": 6951,
      "Station": 6952,
      "remembered": 6953,
      "rude": 6954,
      "internal": 6955,
      "izes": 6956,
      "ization": 6957,
      "ferent": 6958,
      "Moving": 6959,
      "Moscow": 6960,
      "paraly": 6961,
      "Getting": 6962,
      "Mathew": 6963,
      "Harcourt": 6964,
      "Alab": 6965,
      "joint": 6966,
      "jokes": 6967,
      "phr": 6968,
      "housekeeper": 6969,
      "businessman": 6970,
      "hurting": 6971,
      "Arthur": 6972,
      "Benedict": 6973,
      "Jackson": 6974,
      "bars": 6975,
      "barbar": 6976,
      "Coming": 6977,
      "Company": 6978,
      "cutting": 6979,
      "possessed": 6980,
      "checks": 6981,
      "cream": 6982,
      "spell": 6983,
      "spear": 6984,
      "drill": 6985,
      "struck": 6986,
      "strum": 6987,
      "strangers": 6988,
      "cents": 6989,
      "century": 6990,
      "Brasil": 6991,
      "fourth": 6992,
      "moments": 6993,
      "chaos": 6994,
      "surface": 6995,
      "surround": 6996,
      "contest": 6997,
      "contamin": 6998,
      "listened": 6999,
      "vius": 7000,
      "easily": 7001,
      "Engine": 7002,
      "pire": 7003,
      "beach": 7004,
      "pickin": 7005,
      "|>\"...": 7006,
      "arena": 7007,
      "charm": 7008,
      "uding": 7009,
      "chocolate": 7010,
      "crit": 7011,
      "Boss": 7012,
      "priate": 7013,
      "trude": 7014,
      "corn": 7015,
      "lications": 7016,
      "movement": 7017,
      "topic": 7018,
      "pennies": 7019,
      "Bobby": 7020,
      "Chicken": 7021,
      "laws": 7022,
      "Frankly": 7023,
      "Poss": 7024,
      "Point": 7025,
      "rings": 7026,
      "solution": 7027,
      "Fuckin": 7028,
      "determin": 7029,
      "giant": 7030,
      "Permission": 7031,
      "rising": 7032,
      "risking": 7033,
      "rissakes": 7034,
      "logical": 7035,
      "incident": 7036,
      "sends": 7037,
      "ladyship": 7038,
      "Missou": 7039,
      "simpl": 7040,
      "ordering": 7041,
      "hearts": 7042,
      "cleaning": 7043,
      "burst": 7044,
      "Gran": 7045,
      "legal": 7046,
      "banks": 7047,
      "Davis": 7048,
      "brains": 7049,
      "bloody": 7050,
      "Halberstam": 7051,
      "counts": 7052,
      "Carpath": 7053,
      "murders": 7054,
      "Royce": 7055,
      "Merv": 7056,
      "eighty": 7057,
      "fools": 7058,
      "orgeous": 7059,
      "Project": 7060,
      "Proximo": 7061,
      "cuff": 7062,
      "ighth": 7063,
      "musical": 7064,
      "appears": 7065,
      "respond": 7066,
      "Ambass": 7067,
      "Amanda": 7068,
      "winning": 7069,
      "accur": 7070,
      "murderer": 7071,
      "unior": 7072,
      "uniforms": 7073,
      "unique": 7074,
      "Caiman": 7075,
      "buildings": 7076,
      "flood": 7077,
      "misunderstood": 7078,
      "larger": 7079,
      "Protect": 7080,
      "laying": 7081,
      "posters": 7082,
      "leads": 7083,
      "Dooley": 7084,
      "Indians": 7085,
      "grew": 7086,
      "greed": 7087,
      "deserved": 7088,
      "client": 7089,
      "Quit": 7090,
      "smokes": 7091,
      "returns": 7092,
      "returned": 7093,
      "quietly": 7094,
      "Bernard": 7095,
      "garbage": 7096,
      "victims": 7097,
      "cats": 7098,
      "193": 7099,
      "packed": 7100,
      "joined": 7101,
      "cases": 7102,
      "swine": 7103,
      "delivery": 7104,
      "Detroit": 7105,
      "Trych": 7106,
      "Corpor": 7107,
      "Cornelius": 7108,
      "kissing": 7109,
      "treated": 7110,
      "recovery": 7111,
      "appropriate": 7112,
      "Gordo": 7113,
      "Minister": 7114,
      "Strange": 7115,
      "sucked": 7116,
      "belonged": 7117,
      "football": 7118,
      "cussion": 7119,
      "snuff": 7120,
      "colony": 7121,
      "directly": 7122,
      "Shouldn": 7123,
      "knocking": 7124,
      "virt": 7125,
      "reception": 7126,
      "Mostly": 7127,
      "Times": 7128,
      "flies": 7129,
      "smells": 7130,
      "possibility": 7131,
      "drawn": 7132,
      "suspects": 7133,
      "Working": 7134,
      "sealed": 7135,
      "produce": 7136,
      "nineteen": 7137,
      "slipped": 7138,
      "arius": 7139,
      "connected": 7140,
      "suffer": 7141,
      "families": 7142,
      "dickhead": 7143,
      "motel": 7144,
      "vacu": 7145,
      "arrested": 7146,
      "specim": 7147,
      "species": 7148,
      "specific": 7149,
      "Finish": 7150,
      "Finland": 7151,
      "potato": 7152,
      "flew": 7153,
      "demned": 7154,
      "effects": 7155,
      "screwing": 7156,
      "chicks": 7157,
      "quality": 7158,
      "presence": 7159,
      "presents": 7160,
      "violation": 7161,
      "cruel": 7162,
      "strict": 7163,
      "lobal": 7164,
      "lobby": 7165,
      "creatures": 7166,
      "Salzburg": 7167,
      "enov": 7168,
      "investigation": 7169,
      "investigator": 7170,
      "Cyril": 7171,
      "Wilson": 7172,
      "rotten": 7173,
      "ulein": 7174,
      "tapes": 7175,
      "sailing": 7176,
      "prayer": 7177,
      "silver": 7178,
      "sports": 7179,
      "suggesting": 7180,
      "???<|": 7181,
      "Cadet": 7182,
      "Clavius": 7183,
      "anticip": 7184,
      "Vernon": 7185,
      "panic": 7186,
      "cockro": 7187,
      "authority": 7188,
      "authorities": 7189,
      "creeps": 7190,
      "Wonderland": 7191,
      "European": 7192,
      "Kaminski": 7193,
      "booth": 7194,
      "persu": 7195,
      "massive": 7196,
      "instructions": 7197,
      "alien": 7198,
      "containment": 7199,
      "graduated": 7200,
      "Feeling": 7201,
      "temperature": 7202,
      "Contin": 7203,
      "Holiday": 7204,
      "Sarris": 7205,
      "Surpr": 7206,
      "Virgin": 7207,
      "balance": 7208,
      "entertainment": 7209,
      "combination": 7210,
      "Roman": 7211,
      "School": 7212,
      "fascin": 7213,
      "identify": 7214,
      "citizen": 7215,
      "citizens": 7216,
      "Bruce": 7217,
      "Fraulein": 7218,
      "Queen": 7219,
      "candles": 7220,
      "firm": 7221,
      "jinx": 7222,
      "relevant": 7223,
      "reservations": 7224,
      "Francie": 7225,
      "rubber": 7226,
      "crawling": 7227,
      "Greenly": 7228,
      "disturbance": 7229,
      "Blake": 7230,
      "nuclear": 7231,
      "satellite": 7232,
      "wandering": 7233,
      "relatives": 7234,
      "liquor": 7235,
      "documents": 7236,
      "Thurs": 7237,
      "captured": 7238,
      "congratulations": 7239,
      "Couple": 7240,
      "Frost": 7241,
      "Laurie": 7242,
      "Opera": 7243,
      "TUM": 7244,
      "Tribuus": 7245,
      "rusty": 7246,
      "vulnerable": 7247,
      "sacrifice": 7248,
      "distraction": 7249,
      "magazines": 7250,
      "advantage": 7251,
      "luggage": 7252,
      "explosives": 7253,
      "Emergency": 7254,
      "Nigel": 7255,
      "Slaughtered": 7256,
      "bishop": 7257,
      "neutral": 7258,
      "cancel": 7259,
      "broadcast": 7260,
      "Animal": 7261,
      "champagne": 7262,
      "burglar": 7263,
      "destruction": 7264,
      "squeeze": 7265,
      "suggestions": 7266,
      "Nathanael": 7267,
      "Looseleaf": 7268,
      "Pimenov": 7269,
      "Sacha": 7270,
      "Yellow": 7271,
      "various": 7272,
      "accompl": 7273,
      "presume": 7274,
      "laughed": 7275,
      "paranoid": 7276,
      "voyage": 7277,
      "Clarence": 7278,
      "miserable": 7279,
      "circuit": 7280,
      "testify": 7281,
      "Turkish": 7282,
      "Delacroix": 7283,
      "3rd": 7284,
      "Different": 7285,
      "Gretchen": 7286,
      "Loomis": 7287,
      "Memphis": 7288,
      "Mhravitch": 7289,
      "Nexus": 7290,
      "Osborne": 7291,
      "Pamela": 7292,
      "Rolfe": 7293,
      "Zinnowitz": 7294,
      "nigger": 7295,
      "sincere": 7296,
      "veillance": 7297,
      "hemorr": 7298,
      "nephew": 7299,
      "ammunition": 7300,
      "Mathews": 7301,
      "Ambassador": 7302,
      "potatoes": 7303,
      "'...": 7304,
      "*.": 7305,
      "*?<|": 7306,
      "*...<|": 7307,
      "11": 7308,
      "150": 7309,
      "28": 7310,
      "500": 7311,
      "90": 7312,
      ">?<|": 7313,
      "Ak": 7314,
      "Ass": 7315,
      "Aff": 7316,
      "Alive": 7317,
      "Action": 7318,
      "Apri": 7319,
      "ARE": 7320,
      "Bay": 7321,
      "Bast": 7322,
      "Base": 7323,
      "BAT": 7324,
      "Broad": 7325,
      "Berserk": 7326,
      "Cab": 7327,
      "Cir": 7328,
      "Chim": 7329,
      "Cher": 7330,
      "Cave": 7331,
      "Cotton": 7332,
      "Cunning": 7333,
      "DA": 7334,
      "DI": 7335,
      "Den": 7336,
      "Dar": 7337,
      "Dall": 7338,
      "Dem": 7339,
      "EN": 7340,
      "Ein": 7341,
      "Emin": 7342,
      "Each": 7343,
      "FE": 7344,
      "Fh": 7345,
      "Fan": 7346,
      "Fant": 7347,
      "Fix": 7348,
      "Gat": 7349,
      "Gri": 7350,
      "Grow": 7351,
      "Hou": 7352,
      "Hill": 7353,
      "Hank": 7354,
      "Hundred": 7355,
      "Hud": 7356,
      "Hanna": 7357,
      "HAR": 7358,
      "HIM": 7359,
      "Ig": 7360,
      "Jelly": 7361,
      "Ko": 7362,
      "Kor": 7363,
      "Kind": 7364,
      "Kel": 7365,
      "Kru": 7366,
      "KEE": 7367,
      "Kyle": 7368,
      "Lat": 7369,
      "Les": 7370,
      "Lac": 7371,
      "Mit": 7372,
      "Maf": 7373,
      "Mold": 7374,
      "Mars": 7375,
      "Maine": 7376,
      "MIN": 7377,
      "MIT": 7378,
      "Mets": 7379,
      "MOR": 7380,
      "Nes": 7381,
      "Natur": 7382,
      "OH": 7383,
      "Ome": 7384,
      "PC": 7385,
      "PE": 7386,
      "Pu": 7387,
      "Pas": 7388,
      "Pac": 7389,
      "Pity": 7390,
      "Press": 7391,
      "Push": 7392,
      "Peace": 7393,
      "PLEA": 7394,
      "Quell": 7395,
      "RI": 7396,
      "Ring": 7397,
      "Ret": 7398,
      "Rag": 7399,
      "Rim": 7400,
      "Sw": 7401,
      "Sra": 7402,
      "Saf": 7403,
      "Sign": 7404,
      "Scra": 7405,
      "Swear": 7406,
      "Snor": 7407,
      "TI": 7408,
      "Te": 7409,
      "Tou": 7410,
      "Tat": 7411,
      "Tea": 7412,
      "Till": 7413,
      "Tex": 7414,
      "Teach": 7415,
      "Teen": 7416,
      "Troy": 7417,
      "Teh": 7418,
      "TING": 7419,
      "TOR": 7420,
      "Tango": 7421,
      "Vie": 7422,
      "Wy": 7423,
      "Wald": 7424,
      "WHERE": 7425,
      "Zul": 7426,
      "Zorg": 7427,
      "bing": 7428,
      "bour": 7429,
      "bart": 7430,
      "bation": 7431,
      "bred": 7432,
      "biz": 7433,
      "bian": 7434,
      "batt": 7435,
      "bats": 7436,
      "cen": 7437,
      "coff": 7438,
      "cried": 7439,
      "cused": 7440,
      "cattle": 7441,
      "dess": 7442,
      "diss": 7443,
      "ditch": 7444,
      "eve": 7445,
      "eighth": 7446,
      "fere": 7447,
      "fate": 7448,
      "fty": 7449,
      "fence": 7450,
      "gig": 7451,
      "gree": 7452,
      "gather": 7453,
      "gimme": 7454,
      "gically": 7455,
      "gale": 7456,
      "gorgeous": 7457,
      "hay": 7458,
      "hitting": 7459,
      "hassle": 7460,
      "ias": 7461,
      "ipp": 7462,
      "iel": 7463,
      "iya": 7464,
      "ijin": 7465,
      "jerk": 7466,
      "jungle": 7467,
      "knot": 7468,
      "lous": 7469,
      "lons": 7470,
      "loop": 7471,
      "mul": 7472,
      "mtalkin": 7473,
      "nun": 7474,
      "nick": 7475,
      "ok": 7476,
      "ored": 7477,
      "ocrat": 7478,
      "pou": 7479,
      "pry": 7480,
      "pine": 7481,
      "pical": 7482,
      "paste": 7483,
      "rand": 7484,
      "rhy": 7485,
      "rang": 7486,
      "rating": 7487,
      "sest": 7488,
      "sue": 7489,
      "smar": 7490,
      "session": 7491,
      "swhatI": 7492,
      "tat": 7493,
      "tre": 7494,
      "tide": 7495,
      "twit": 7496,
      "tender": 7497,
      "tanks": 7498,
      "uu": 7499,
      "uled": 7500,
      "ugged": 7501,
      "vour": 7502,
      "via": 7503,
      "wa": 7504,
      "wal": 7505,
      "wine": 7506,
      "wret": 7507,
      "yield": 7508,
      "zone": 7509,
      "zard": 7510,
      "zzy": 7511,
      "erman": 7512,
      "erase": 7513,
      "anno": 7514,
      "anci": 7515,
      "anos": 7516,
      "oulos": 7517,
      "oubles": 7518,
      "thie": 7519,
      "isco": 7520,
      "enem": 7521,
      "usage": 7522,
      "inst": 7523,
      "infant": 7524,
      "intact": 7525,
      "instant": 7526,
      "instrum": 7527,
      "antine": 7528,
      "antum": 7529,
      "enda": 7530,
      "endous": 7531,
      "oni": 7532,
      "onboard": 7533,
      "atis": 7534,
      "rep": 7535,
      "rever": 7536,
      "restore": 7537,
      "reserve": 7538,
      "remark": 7539,
      "reverse": 7540,
      "repressed": 7541,
      "toe": 7542,
      "toy": 7543,
      "towel": 7544,
      "lle": 7545,
      "mechan": 7546,
      "itness": 7547,
      "orate": 7548,
      "ories": 7549,
      "arus": 7550,
      "arre": 7551,
      "lem": 7552,
      "lege": 7553,
      "lemon": 7554,
      "bean": 7555,
      "bein": 7556,
      "behave": 7557,
      "belt": 7558,
      "bearing": 7559,
      "becile": 7560,
      "edge": 7561,
      "otch": 7562,
      "android": 7563,
      "seed": 7564,
      "seum": 7565,
      "severe": 7566,
      "alth": 7567,
      "album": 7568,
      "stat": 7569,
      "sting": 7570,
      "stal": 7571,
      "stashed": 7572,
      "cker": 7573,
      "etic": 7574,
      "eties": 7575,
      "lip": 7576,
      "limo": 7577,
      "liber": 7578,
      "limin": 7579,
      "limp": 7580,
      "alley": 7581,
      "utiful": 7582,
      "ooo": 7583,
      "ooze": 7584,
      "...!": 7585,
      "rified": 7586,
      "weir": 7587,
      "weigh": 7588,
      "wig": 7589,
      "wiring": 7590,
      "chit": 7591,
      "advis": 7592,
      "addict": 7593,
      "Whatta": 7594,
      "Whatiya": 7595,
      "oming": 7596,
      "omic": 7597,
      "absolute": 7598,
      "Wear": 7599,
      "tial": 7600,
      "Hee": 7601,
      "Hebbing": 7602,
      "entry": 7603,
      "entered": 7604,
      "amer": 7605,
      "amate": 7606,
      "ambit": 7607,
      "amonds": 7608,
      "root": 7609,
      "roast": 7610,
      "terson": 7611,
      "terms": 7612,
      "loans": 7613,
      "logram": 7614,
      "unlike": 7615,
      "unte": 7616,
      "shan": 7617,
      "shine": 7618,
      "shrink": 7619,
      "tains": 7620,
      "modest": 7621,
      "rag": 7622,
      "Thor": 7623,
      "novel": 7624,
      "femin": 7625,
      "ills": 7626,
      "ional": 7627,
      "soil": 7628,
      "soap": 7629,
      "urning": 7630,
      "urgent": 7631,
      "urvy": 7632,
      "worn": 7633,
      "ctural": 7634,
      "pean": 7635,
      "dece": 7636,
      "defin": 7637,
      "deplo": 7638,
      "righteous": 7639,
      "bore": 7640,
      "bolt": 7641,
      "boats": 7642,
      "agit": 7643,
      "agents": 7644,
      "guide": 7645,
      "seeking": 7646,
      "Anderson": 7647,
      "maniac": 7648,
      "maneu": 7649,
      "sacred": 7650,
      "macho": 7651,
      "plor": 7652,
      "plate": 7653,
      "plug": 7654,
      "plumber": 7655,
      "plants": 7656,
      "hers": 7657,
      "However": 7658,
      "estate": 7659,
      "contr": 7660,
      "condemned": 7661,
      "owned": 7662,
      "ulting": 7663,
      "ulated": 7664,
      "ultimate": 7665,
      "ilar": 7666,
      "exists": 7667,
      "combat": 7668,
      "coin": 7669,
      "coast": 7670,
      "covers": 7671,
      "cocks": 7672,
      "coats": 7673,
      "fax": 7674,
      "fame": 7675,
      "factor": 7676,
      "faced": 7677,
      "quet": 7678,
      "quad": 7679,
      "quire": 7680,
      "imbecile": 7681,
      "trucks": 7682,
      "needn": 7683,
      "proven": 7684,
      "probab": 7685,
      "propose": 7686,
      "spite": 7687,
      "lett": 7688,
      "berg": 7689,
      "berately": 7690,
      "pering": 7691,
      "perman": 7692,
      "oughtta": 7693,
      "Sheila": 7694,
      "shoulders": 7695,
      "obli": 7696,
      "observ": 7697,
      "stopping": 7698,
      "scent": 7699,
      "scaring": 7700,
      "Myers": 7701,
      "chez": 7702,
      "chell": 7703,
      "blunder": 7704,
      "bluff": 7705,
      "blessed": 7706,
      "blaming": 7707,
      "moron": 7708,
      "mornin": 7709,
      "torn": 7710,
      "mini": 7711,
      "wrence": 7712,
      "bury": 7713,
      "diamonds": 7714,
      "fiend": 7715,
      "fiance": 7716,
      "feelin": 7717,
      "label": 7718,
      "friendship": 7719,
      "Read": 7720,
      "Recon": 7721,
      "Reef": 7722,
      "Into": 7723,
      "Inside": 7724,
      "Incred": 7725,
      "intest": 7726,
      "trace": 7727,
      "tracked": 7728,
      "traitor": 7729,
      "brand": 7730,
      "brutal": 7731,
      "rowave": 7732,
      "mons": 7733,
      "mony": 7734,
      "damit": 7735,
      "supper": 7736,
      "suite": 7737,
      "sugar": 7738,
      "waitress": 7739,
      "marshmallow": 7740,
      "Join": 7741,
      "Ford": 7742,
      "whiz": 7743,
      "Someday": 7744,
      "shipping": 7745,
      "Sean": 7746,
      "closest": 7747,
      "lotta": 7748,
      "China": 7749,
      "handling": 7750,
      "afterwards": 7751,
      "Strode": 7752,
      "gland": 7753,
      "glue": 7754,
      "tainment": 7755,
      "mighty": 7756,
      "opoulos": 7757,
      "returning": 7758,
      "bitter": 7759,
      "bitches": 7760,
      "interpret": 7761,
      "interfere": 7762,
      "clap": 7763,
      "rung": 7764,
      "tense": 7765,
      "pts": 7766,
      "pected": 7767,
      "playin": 7768,
      "yah": 7769,
      "breasts": 7770,
      "Rober": 7771,
      "Rogers": 7772,
      "Mathes": 7773,
      "Harper": 7774,
      "Alma": 7775,
      "Alaska": 7776,
      "Deal": 7777,
      "Dece": 7778,
      "lessons": 7779,
      "phones": 7780,
      "prettier": 7781,
      "certific": 7782,
      "council": 7783,
      "dealt": 7784,
      "desire": 7785,
      "mayor": 7786,
      "Arch": 7787,
      "cuted": 7788,
      "warned": 7789,
      "restaur": 7790,
      "questioning": 7791,
      "questioned": 7792,
      "drifting": 7793,
      "stranger": 7794,
      "centric": 7795,
      "shotgun": 7796,
      "worrying": 7797,
      "Brenda": 7798,
      "gods": 7799,
      "Momo": 7800,
      "Willie": 7801,
      "Coke": 7802,
      "Cops": 7803,
      "Colos": 7804,
      "chained": 7805,
      "surge": 7806,
      "survi": 7807,
      "surveillance": 7808,
      "compan": 7809,
      "compromise": 7810,
      "pile": 7811,
      "pipe": 7812,
      "pires": 7813,
      "fights": 7814,
      "Left": 7815,
      "promotion": 7816,
      "senses": 7817,
      "firemen": 7818,
      "charms": 7819,
      "locks": 7820,
      "grain": 7821,
      "grace": 7822,
      "chopped": 7823,
      "choslov": 7824,
      "crus": 7825,
      "cram": 7826,
      "crashed": 7827,
      "stew": 7828,
      "Bogey": 7829,
      "priest": 7830,
      "loston": 7831,
      "Martha": 7832,
      "Marcie": 7833,
      "Union": 7834,
      "void": 7835,
      "penal": 7836,
      "community": 7837,
      "opens": 7838,
      "elephant": 7839,
      "atory": 7840,
      "Pope": 7841,
      "tries": 7842,
      "highway": 7843,
      "bully": 7844,
      "differently": 7845,
      "Fucking": 7846,
      "Blood": 7847,
      "Guard": 7848,
      "Lock": 7849,
      "givin": 7850,
      "Perry": 7851,
      "skip": 7852,
      "skirt": 7853,
      "crimes": 7854,
      "ridge": 7855,
      "goddamnit": 7856,
      "goddamned": 7857,
      "bach": 7858,
      "strain": 7859,
      "shuttle": 7860,
      "HELP": 7861,
      "Patterson": 7862,
      "Bytes": 7863,
      "copies": 7864,
      "gently": 7865,
      "answering": 7866,
      "Grant": 7867,
      "azz": 7868,
      "achie": 7869,
      "mitter": 7870,
      "brace": 7871,
      "deny": 7872,
      "blackouts": 7873,
      "patience": 7874,
      "filthy": 7875,
      "Connor": 7876,
      "Containment": 7877,
      "hanged": 7878,
      "?!!<|": 7879,
      "relay": 7880,
      "River": 7881,
      "campus": 7882,
      "officially": 7883,
      "subway": 7884,
      "Paradise": 7885,
      "starters": 7886,
      "grandmother": 7887,
      "gladiator": 7888,
      "porch": 7889,
      "arming": 7890,
      "collar": 7891,
      "reported": 7892,
      "appeal": 7893,
      "appeared": 7894,
      "walls": 7895,
      "beats": 7896,
      "otted": 7897,
      "slut": 7898,
      "Viet": 7899,
      "consin": 7900,
      "males": 7901,
      "malaria": 7902,
      "salary": 7903,
      "saloon": 7904,
      "unex": 7905,
      "shortly": 7906,
      "humanity": 7907,
      "mistakes": 7908,
      "athle": 7909,
      "misery": 7910,
      "whist": 7911,
      "Dunn": 7912,
      "offering": 7913,
      "Prote": 7914,
      "Smashing": 7915,
      "operations": 7916,
      "imagined": 7917,
      "Madison": 7918,
      "rolling": 7919,
      "India": 7920,
      "basically": 7921,
      "machines": 7922,
      "attached": 7923,
      "smartest": 7924,
      "grocer": 7925,
      "raping": 7926,
      "spending": 7927,
      "Clem": 7928,
      "Clean": 7929,
      "occasion": 7930,
      "visiting": 7931,
      "1922": 7932,
      "kyo": 7933,
      "enjoyed": 7934,
      "fella": 7935,
      "Evelyn": 7936,
      "Serious": 7937,
      "busting": 7938,
      "miral": 7939,
      "delicious": 7940,
      "deliberately": 7941,
      "protecting": 7942,
      "protected": 7943,
      "Detonation": 7944,
      "Lawrence": 7945,
      "Correct": 7946,
      "STOP": 7947,
      "began": 7948,
      "hammer": 7949,
      "freaked": 7950,
      "NOT": 7951,
      "axe": 7952,
      "suitcase": 7953,
      "steady": 7954,
      "circle": 7955,
      "circus": 7956,
      "volunte": 7957,
      "superstit": 7958,
      "Strat": 7959,
      "spoil": 7960,
      "spoken": 7961,
      "mentioning": 7962,
      "Jani": 7963,
      "Janus": 7964,
      "Jango": 7965,
      "Janos": 7966,
      "hostage": 7967,
      "hostile": 7968,
      "windows": 7969,
      "Greer": 7970,
      "Greta": 7971,
      "Administration": 7972,
      "Admiral": 7973,
      "grader": 7974,
      "Neilsen": 7975,
      "possibilities": 7976,
      "satan": 7977,
      "uzzy": 7978,
      "decisions": 7979,
      "bribe": 7980,
      "gifts": 7981,
      "jorn": 7982,
      "lizard": 7983,
      "advance": 7984,
      "travels": 7985,
      "Longdale": 7986,
      "motiv": 7987,
      "naturally": 7988,
      "pigs": 7989,
      "rupt": 7990,
      "facing": 7991,
      "discussion": 7992,
      "Boys": 7993,
      "Emma": 7994,
      "Finally": 7995,
      "jewel": 7996,
      "potential": 7997,
      "peaceful": 7998,
      "buddies": 7999
    },
    "merges": [
      [
        "<",
        "|"
      ],
      [
        "|",
        ">"
      ],
      [
        "e",
        "r"
      ],
      [
        "a",
        "n"
      ],
      [
        "o",
        "u"
      ],
      [
        "t",
        "h"
      ],
      [
        "i",
        "s"
      ],
      [
        "e",
        "n"
      ],
      [
        "a",
        "s"
      ],
      [
        "u",
        "s"
      ],
      [
        ".",
        "<|"
      ],
      [
        "i",
        "n"
      ],
      [
        "an",
        "t"
      ],
      [
        "is",
        "t"
      ],
      [
        "en",
        "d"
      ],
      [
        "as",
        "s"
      ],
      [
        "ass",
        "ist"
      ],
      [
        "assist",
        "ant"
      ],
      [
        "us",
        "er"
      ],
      [
        "y",
        "ou"
      ],
      [
        "o",
        "n"
      ],
      [
        "a",
        "t"
      ],
      [
        "r",
        "e"
      ],
      [
        "t",
        "o"
      ],
      [
        "th",
        "e"
      ],
      [
        "l",
        "l"
      ],
      [
        "in",
        "g"
      ],
      [
        "m",
        "e"
      ],
      [
        "?",
        "<|"
      ],
      [
        "i",
        "t"
      ],
      [
        "o",
        "r"
      ],
      [
        ".",
        "."
      ],
      [
        "o",
        "w"
      ],
      [
        "v",
        "e"
      ],
      [
        "h",
        "e"
      ],
      [
        "a",
        "r"
      ],
      [
        "e",
        "s"
      ],
      [
        "h",
        "at"
      ],
      [
        "l",
        "e"
      ],
      [
        "b",
        "e"
      ],
      [
        "e",
        "d"
      ],
      [
        "o",
        "t"
      ],
      [
        "a",
        "y"
      ],
      [
        "o",
        "f"
      ],
      [
        "er",
        "e"
      ],
      [
        "Y",
        "ou"
      ],
      [
        "h",
        "a"
      ],
      [
        "an",
        "d"
      ],
      [
        "s",
        "e"
      ],
      [
        "i",
        "d"
      ],
      [
        "g",
        "h"
      ],
      [
        "th",
        "at"
      ],
      [
        "a",
        "l"
      ],
      [
        "k",
        "e"
      ],
      [
        "s",
        "t"
      ],
      [
        "c",
        "k"
      ],
      [
        "e",
        "t"
      ],
      [
        "l",
        "i"
      ],
      [
        "d",
        "o"
      ],
      [
        "n",
        "ow"
      ],
      [
        "l",
        "d"
      ],
      [
        "a",
        "ll"
      ],
      [
        "u",
        "t"
      ],
      [
        "o",
        "o"
      ],
      [
        "ou",
        "t"
      ],
      [
        "gh",
        "t"
      ],
      [
        "o",
        "me"
      ],
      [
        "..",
        "."
      ],
      [
        "v",
        "er"
      ],
      [
        "f",
        "or"
      ],
      [
        "r",
        "i"
      ],
      [
        "w",
        "e"
      ],
      [
        "w",
        "i"
      ],
      [
        "c",
        "h"
      ],
      [
        "a",
        "d"
      ],
      [
        "h",
        "ere"
      ],
      [
        "W",
        "hat"
      ],
      [
        "-",
        "-"
      ],
      [
        "!",
        "<|"
      ],
      [
        "us",
        "t"
      ],
      [
        "k",
        "now"
      ],
      [
        "c",
        "e"
      ],
      [
        "o",
        "m"
      ],
      [
        "on",
        "e"
      ],
      [
        "you",
        "r"
      ],
      [
        "g",
        "o"
      ],
      [
        "ha",
        "ve"
      ],
      [
        "a",
        "b"
      ],
      [
        "n",
        "d"
      ],
      [
        "m",
        "y"
      ],
      [
        "W",
        "e"
      ],
      [
        "t",
        "i"
      ],
      [
        "th",
        "ing"
      ],
      [
        "d",
        "on"
      ],
      [
        "a",
        "re"
      ],
      [
        "n",
        "e"
      ],
      [
        "th",
        "is"
      ],
      [
        "h",
        "i"
      ],
      [
        "ou",
        "ld"
      ],
      [
        "w",
        "as"
      ],
      [
        "i",
        "r"
      ],
      [
        "..",
        ".<|"
      ],
      [
        "I",
        "t"
      ],
      [
        "l",
        "y"
      ],
      [
        "n",
        "ot"
      ],
      [
        "T",
        "he"
      ],
      [
        "c",
        "an"
      ],
      [
        "h",
        "o"
      ],
      [
        "w",
        "hat"
      ],
      [
        "wi",
        "th"
      ],
      [
        "u",
        "p"
      ],
      [
        "g",
        "et"
      ],
      [
        "H",
        "e"
      ],
      [
        "en",
        "t"
      ],
      [
        "a",
        "m"
      ],
      [
        "in",
        "k"
      ],
      [
        "th",
        "er"
      ],
      [
        "s",
        "ome"
      ],
      [
        "r",
        "y"
      ],
      [
        "r",
        "o"
      ],
      [
        "w",
        "ant"
      ],
      [
        "N",
        "o"
      ],
      [
        "li",
        "ke"
      ],
      [
        "t",
        "er"
      ],
      [
        "j",
        "ust"
      ],
      [
        "ab",
        "out"
      ],
      [
        "e",
        "a"
      ],
      [
        "l",
        "o"
      ],
      [
        "u",
        "n"
      ],
      [
        "s",
        "h"
      ],
      [
        "g",
        "ot"
      ],
      [
        "i",
        "f"
      ],
      [
        "t",
        "a"
      ],
      [
        "m",
        "o"
      ],
      [
        "r",
        "a"
      ],
      [
        "th",
        "ink"
      ],
      [
        "T",
        "h"
      ],
      [
        "n",
        "o"
      ],
      [
        "f",
        "e"
      ],
      [
        "an",
        "y"
      ],
      [
        "d",
        "id"
      ],
      [
        "i",
        "ll"
      ],
      [
        "i",
        "on"
      ],
      [
        "t",
        "e"
      ],
      [
        "s",
        "o"
      ],
      [
        "hi",
        "m"
      ],
      [
        "u",
        "r"
      ],
      [
        "i",
        "ght"
      ],
      [
        "oo",
        "d"
      ],
      [
        "w",
        "ay"
      ],
      [
        "w",
        "or"
      ],
      [
        "ou",
        "r"
      ],
      [
        "T",
        "hat"
      ],
      [
        "c",
        "t"
      ],
      [
        "p",
        "e"
      ],
      [
        "oo",
        "k"
      ],
      [
        "d",
        "e"
      ],
      [
        "ri",
        "ght"
      ],
      [
        "b",
        "o"
      ],
      [
        "h",
        "y"
      ],
      [
        "ver",
        "y"
      ],
      [
        "a",
        "ck"
      ],
      [
        "a",
        "g"
      ],
      [
        "in",
        "d"
      ],
      [
        "all",
        "y"
      ],
      [
        "p",
        "o"
      ],
      [
        "g",
        "u"
      ],
      [
        "th",
        "ere"
      ],
      [
        "se",
        "e"
      ],
      [
        "A",
        "nd"
      ],
      [
        "i",
        "c"
      ],
      [
        "m",
        "an"
      ],
      [
        "s",
        "a"
      ],
      [
        "p",
        "p"
      ],
      [
        "b",
        "ut"
      ],
      [
        "i",
        "ve"
      ],
      [
        "m",
        "a"
      ],
      [
        "O",
        "h"
      ],
      [
        "n",
        "a"
      ],
      [
        "the",
        "y"
      ],
      [
        "e",
        "l"
      ],
      [
        "es",
        "s"
      ],
      [
        "p",
        "l"
      ],
      [
        "u",
        "ck"
      ],
      [
        "go",
        "ing"
      ],
      [
        "ar",
        "t"
      ],
      [
        "s",
        "ay"
      ],
      [
        "--",
        "<|"
      ],
      [
        "u",
        "re"
      ],
      [
        "B",
        "ut"
      ],
      [
        "We",
        "ll"
      ],
      [
        "h",
        "er"
      ],
      [
        "c",
        "a"
      ],
      [
        "ti",
        "me"
      ],
      [
        "p",
        "le"
      ],
      [
        "ea",
        "h"
      ],
      [
        "H",
        "ow"
      ],
      [
        "es",
        "t"
      ],
      [
        "Y",
        "es"
      ],
      [
        "r",
        "om"
      ],
      [
        "ar",
        "d"
      ],
      [
        "c",
        "on"
      ],
      [
        "at",
        "e"
      ],
      [
        "a",
        "in"
      ],
      [
        "ow",
        "n"
      ],
      [
        "on",
        "g"
      ],
      [
        "u",
        "l"
      ],
      [
        "i",
        "l"
      ],
      [
        "w",
        "ould"
      ],
      [
        "h",
        "en"
      ],
      [
        "i",
        "g"
      ],
      [
        "e",
        "x"
      ],
      [
        "er",
        "s"
      ],
      [
        "al",
        "k"
      ],
      [
        "Y",
        "eah"
      ],
      [
        "i",
        "e"
      ],
      [
        "an",
        "k"
      ],
      [
        "te",
        "ll"
      ],
      [
        "v",
        "en"
      ],
      [
        "wi",
        "ll"
      ],
      [
        "g",
        "e"
      ],
      [
        "as",
        "t"
      ],
      [
        "c",
        "ould"
      ],
      [
        "b",
        "ack"
      ],
      [
        "be",
        "en"
      ],
      [
        "in",
        "e"
      ],
      [
        "w",
        "ho"
      ],
      [
        "d",
        "y"
      ],
      [
        "ou",
        "nd"
      ],
      [
        "us",
        "e"
      ],
      [
        "D",
        "o"
      ],
      [
        "g",
        "ood"
      ],
      [
        "to",
        "o"
      ],
      [
        "S",
        "o"
      ],
      [
        "c",
        "ome"
      ],
      [
        "s",
        "s"
      ],
      [
        "W",
        "hy"
      ],
      [
        "c",
        "om"
      ],
      [
        "e",
        "p"
      ],
      [
        "i",
        "ck"
      ],
      [
        "l",
        "ook"
      ],
      [
        "c",
        "o"
      ],
      [
        "f",
        "a"
      ],
      [
        "at",
        "ion"
      ],
      [
        "s",
        "he"
      ],
      [
        "the",
        "m"
      ],
      [
        "it",
        "t"
      ],
      [
        "w",
        "ere"
      ],
      [
        "h",
        "ow"
      ],
      [
        "f",
        "rom"
      ],
      [
        "q",
        "u"
      ],
      [
        "ou",
        "s"
      ],
      [
        "of",
        "f"
      ],
      [
        "The",
        "y"
      ],
      [
        "b",
        "le"
      ],
      [
        "k",
        "ay"
      ],
      [
        "h",
        "is"
      ],
      [
        "me",
        "an"
      ],
      [
        "l",
        "f"
      ],
      [
        "did",
        "n"
      ],
      [
        "D",
        "on"
      ],
      [
        "d",
        "ay"
      ],
      [
        "i",
        "m"
      ],
      [
        "t",
        "alk"
      ],
      [
        "u",
        "nd"
      ],
      [
        "Th",
        "is"
      ],
      [
        "as",
        "e"
      ],
      [
        "t",
        "r"
      ],
      [
        "ne",
        "ed"
      ],
      [
        "o",
        "ther"
      ],
      [
        "G",
        "o"
      ],
      [
        "u",
        "m"
      ],
      [
        "some",
        "thing"
      ],
      [
        "u",
        "ch"
      ],
      [
        "wor",
        "k"
      ],
      [
        "p",
        "ro"
      ],
      [
        "M",
        "r"
      ],
      [
        "ha",
        "pp"
      ],
      [
        "gu",
        "y"
      ],
      [
        "I",
        "f"
      ],
      [
        "ne",
        "ver"
      ],
      [
        "f",
        "uck"
      ],
      [
        "f",
        "o"
      ],
      [
        "mo",
        "re"
      ],
      [
        "s",
        "p"
      ],
      [
        "ou",
        "gh"
      ],
      [
        "le",
        "t"
      ],
      [
        "ha",
        "d"
      ],
      [
        "ta",
        "ke"
      ],
      [
        "itt",
        "le"
      ],
      [
        "w",
        "hen"
      ],
      [
        "b",
        "er"
      ],
      [
        "re",
        "d"
      ],
      [
        "a",
        "c"
      ],
      [
        "e",
        "ver"
      ],
      [
        "e",
        "very"
      ],
      [
        "p",
        "er"
      ],
      [
        "re",
        "ally"
      ],
      [
        "d",
        "own"
      ],
      [
        "l",
        "ittle"
      ],
      [
        "ou",
        "ght"
      ],
      [
        "i",
        "ce"
      ],
      [
        "a",
        "ve"
      ],
      [
        "S",
        "he"
      ],
      [
        "t",
        "y"
      ],
      [
        "b",
        "y"
      ],
      [
        "g",
        "on"
      ],
      [
        "p",
        "re"
      ],
      [
        "ti",
        "on"
      ],
      [
        "sh",
        "ould"
      ],
      [
        "bo",
        "dy"
      ],
      [
        "o",
        "b"
      ],
      [
        "w",
        "o"
      ],
      [
        "ma",
        "ke"
      ],
      [
        "w",
        "here"
      ],
      [
        "id",
        "e"
      ],
      [
        "o",
        "ver"
      ],
      [
        "c",
        "all"
      ],
      [
        "gon",
        "na"
      ],
      [
        "e",
        "ar"
      ],
      [
        "s",
        "to"
      ],
      [
        "do",
        "es"
      ],
      [
        "T",
        "here"
      ],
      [
        "W",
        "here"
      ],
      [
        "k",
        "ill"
      ],
      [
        "J",
        "ust"
      ],
      [
        "w",
        "on"
      ],
      [
        "a",
        "f"
      ],
      [
        "I",
        "s"
      ],
      [
        "a",
        "p"
      ],
      [
        "happ",
        "en"
      ],
      [
        "be",
        "t"
      ],
      [
        "h",
        "as"
      ],
      [
        "li",
        "e"
      ],
      [
        "m",
        "uch"
      ],
      [
        "s",
        "c"
      ],
      [
        "ay",
        "be"
      ],
      [
        "se",
        "lf"
      ],
      [
        "lo",
        "ve"
      ],
      [
        "or",
        "ry"
      ],
      [
        "re",
        "ad"
      ],
      [
        "one",
        "y"
      ],
      [
        "M",
        "y"
      ],
      [
        "N",
        "ot"
      ],
      [
        "is",
        "s"
      ],
      [
        "or",
        "t"
      ],
      [
        "W",
        "ho"
      ],
      [
        "sa",
        "id"
      ],
      [
        "ca",
        "use"
      ],
      [
        "o",
        "ple"
      ],
      [
        "L",
        "et"
      ],
      [
        "t",
        "ry"
      ],
      [
        "a",
        "it"
      ],
      [
        "k",
        "ing"
      ],
      [
        "th",
        "en"
      ],
      [
        "c",
        "he"
      ],
      [
        "e",
        "m"
      ],
      [
        "b",
        "l"
      ],
      [
        "g",
        "ive"
      ],
      [
        "on",
        "ly"
      ],
      [
        "ne",
        "w"
      ],
      [
        "s",
        "ure"
      ],
      [
        "m",
        "or"
      ],
      [
        "und",
        "er"
      ],
      [
        "fo",
        "re"
      ],
      [
        "f",
        "ri"
      ],
      [
        "n",
        "ight"
      ],
      [
        "to",
        "r"
      ],
      [
        "re",
        "e"
      ],
      [
        "g",
        "r"
      ],
      [
        "m",
        "ent"
      ],
      [
        "Go",
        "d"
      ],
      [
        "m",
        "ust"
      ],
      [
        "re",
        "at"
      ],
      [
        "t",
        "wo"
      ],
      [
        "w",
        "hy"
      ],
      [
        "n",
        "ing"
      ],
      [
        "N",
        "ow"
      ],
      [
        "is",
        "h"
      ],
      [
        "B",
        "e"
      ],
      [
        "a",
        "ce"
      ],
      [
        "v",
        "ing"
      ],
      [
        "m",
        "in"
      ],
      [
        "pe",
        "ople"
      ],
      [
        "G",
        "ood"
      ],
      [
        "f",
        "f"
      ],
      [
        "w",
        "r"
      ],
      [
        "l",
        "ong"
      ],
      [
        "e",
        "ven"
      ],
      [
        "st",
        "and"
      ],
      [
        "do",
        "ing"
      ],
      [
        "Th",
        "ank"
      ],
      [
        "f",
        "ind"
      ],
      [
        "n",
        "y"
      ],
      [
        "d",
        "er"
      ],
      [
        "it",
        "e"
      ],
      [
        "b",
        "u"
      ],
      [
        "u",
        "e"
      ],
      [
        "any",
        "thing"
      ],
      [
        "t",
        "ing"
      ],
      [
        "l",
        "p"
      ],
      [
        "ir",
        "st"
      ],
      [
        "L",
        "ook"
      ],
      [
        "O",
        "kay"
      ],
      [
        "a",
        "ct"
      ],
      [
        "th",
        "ought"
      ],
      [
        "d",
        "i"
      ],
      [
        "an",
        "g"
      ],
      [
        "it",
        "y"
      ],
      [
        "ad",
        "e"
      ],
      [
        "f",
        "i"
      ],
      [
        "in",
        "s"
      ],
      [
        "sh",
        "it"
      ],
      [
        "fe",
        "el"
      ],
      [
        "D",
        "id"
      ],
      [
        "A",
        "re"
      ],
      [
        "l",
        "a"
      ],
      [
        "m",
        "oney"
      ],
      [
        "lie",
        "ve"
      ],
      [
        "fri",
        "end"
      ],
      [
        "R",
        "e"
      ],
      [
        "ag",
        "ain"
      ],
      [
        "I",
        "n"
      ],
      [
        "p",
        "ut"
      ],
      [
        "s",
        "orry"
      ],
      [
        "as",
        "k"
      ],
      [
        "he",
        "lp"
      ],
      [
        "a",
        "ke"
      ],
      [
        "p",
        "s"
      ],
      [
        "in",
        "t"
      ],
      [
        "way",
        "s"
      ],
      [
        "t",
        "ra"
      ],
      [
        "h",
        "ome"
      ],
      [
        "th",
        "an"
      ],
      [
        "the",
        "se"
      ],
      [
        "bet",
        "ter"
      ],
      [
        "t",
        "on"
      ],
      [
        "ag",
        "e"
      ],
      [
        "b",
        "r"
      ],
      [
        "k",
        "ind"
      ],
      [
        "r",
        "ow"
      ],
      [
        "s",
        "ir"
      ],
      [
        "o",
        "ld"
      ],
      [
        "y",
        "ear"
      ],
      [
        "be",
        "fore"
      ],
      [
        "li",
        "fe"
      ],
      [
        "be",
        "lieve"
      ],
      [
        "c",
        "our"
      ],
      [
        "m",
        "ber"
      ],
      [
        "Th",
        "en"
      ],
      [
        "a",
        "k"
      ],
      [
        "A",
        "ll"
      ],
      [
        "st",
        "ill"
      ],
      [
        "He",
        "y"
      ],
      [
        "an",
        "ce"
      ],
      [
        "o",
        "kay"
      ],
      [
        "y",
        "es"
      ],
      [
        "g",
        "ir"
      ],
      [
        "ab",
        "le"
      ],
      [
        "in",
        "to"
      ],
      [
        "we",
        "ll"
      ],
      [
        "You",
        "r"
      ],
      [
        "d",
        "r"
      ],
      [
        "na",
        "me"
      ],
      [
        "m",
        "on"
      ],
      [
        "pl",
        "ace"
      ],
      [
        "oo",
        "l"
      ],
      [
        "d",
        "am"
      ],
      [
        "f",
        "irst"
      ],
      [
        "l",
        "ast"
      ],
      [
        "o",
        "se"
      ],
      [
        "he",
        "ad"
      ],
      [
        "c",
        "are"
      ],
      [
        "cour",
        "se"
      ],
      [
        "i",
        "es"
      ],
      [
        "e",
        "ll"
      ],
      [
        "m",
        "en"
      ],
      [
        "ke",
        "ep"
      ],
      [
        "u",
        "h"
      ],
      [
        "M",
        "aybe"
      ],
      [
        "p",
        "art"
      ],
      [
        "ar",
        "ound"
      ],
      [
        "oo",
        "m"
      ],
      [
        "b",
        "ad"
      ],
      [
        "to",
        "ld"
      ],
      [
        "s",
        "up"
      ],
      [
        "p",
        "r"
      ],
      [
        "s",
        "u"
      ],
      [
        "w",
        "ait"
      ],
      [
        "C",
        "an"
      ],
      [
        "s",
        "on"
      ],
      [
        "me",
        "mber"
      ],
      [
        "w",
        "om"
      ],
      [
        "s",
        "er"
      ],
      [
        "w",
        "ent"
      ],
      [
        "m",
        "ar"
      ],
      [
        "is",
        "e"
      ],
      [
        "thing",
        "s"
      ],
      [
        "ur",
        "n"
      ],
      [
        "b",
        "ab"
      ],
      [
        "gir",
        "l"
      ],
      [
        "J",
        "o"
      ],
      [
        "read",
        "y"
      ],
      [
        "m",
        "at"
      ],
      [
        "gu",
        "ess"
      ],
      [
        "j",
        "ob"
      ],
      [
        "s",
        "i"
      ],
      [
        "en",
        "ce"
      ],
      [
        "F",
        "or"
      ],
      [
        "f",
        "t"
      ],
      [
        "u",
        "ll"
      ],
      [
        "c",
        "ou"
      ],
      [
        "w",
        "hi"
      ],
      [
        "S",
        "ome"
      ],
      [
        "s",
        "hi"
      ],
      [
        "is",
        "n"
      ],
      [
        "k",
        "id"
      ],
      [
        "al",
        "ways"
      ],
      [
        "S",
        "e"
      ],
      [
        "c",
        "ar"
      ],
      [
        "c",
        "lo"
      ],
      [
        "re",
        "al"
      ],
      [
        "l",
        "ot"
      ],
      [
        "th",
        "r"
      ],
      [
        "po",
        "s"
      ],
      [
        "min",
        "ut"
      ],
      [
        "ist",
        "en"
      ],
      [
        "st",
        "art"
      ],
      [
        "C",
        "h"
      ],
      [
        "under",
        "stand"
      ],
      [
        "b",
        "ig"
      ],
      [
        "happen",
        "ed"
      ],
      [
        "h",
        "and"
      ],
      [
        "m",
        "ind"
      ],
      [
        "c",
        "i"
      ],
      [
        "|>",
        "..."
      ],
      [
        "st",
        "u"
      ],
      [
        "he",
        "ll"
      ],
      [
        "does",
        "n"
      ],
      [
        "af",
        "ter"
      ],
      [
        "b",
        "us"
      ],
      [
        "m",
        "er"
      ],
      [
        "th",
        "ose"
      ],
      [
        "sh",
        "ow"
      ],
      [
        "C",
        "ome"
      ],
      [
        "S",
        "h"
      ],
      [
        "a",
        "way"
      ],
      [
        "bo",
        "y"
      ],
      [
        "ig",
        "n"
      ],
      [
        "an",
        "s"
      ],
      [
        "wr",
        "ong"
      ],
      [
        "d",
        "is"
      ],
      [
        "o",
        "l"
      ],
      [
        "F",
        "r"
      ],
      [
        "S",
        "t"
      ],
      [
        "g",
        "l"
      ],
      [
        "he",
        "ar"
      ],
      [
        "ta",
        "in"
      ],
      [
        "no",
        "thing"
      ],
      [
        "W",
        "hen"
      ],
      [
        "the",
        "ir"
      ],
      [
        "m",
        "ight"
      ],
      [
        "c",
        "le"
      ],
      [
        "k",
        "es"
      ],
      [
        "m",
        "s"
      ],
      [
        "de",
        "ad"
      ],
      [
        "f",
        "ul"
      ],
      [
        "o",
        "p"
      ],
      [
        "fa",
        "ther"
      ],
      [
        "w",
        "at"
      ],
      [
        "re",
        "t"
      ],
      [
        "el",
        "se"
      ],
      [
        "st",
        "ay"
      ],
      [
        "ri",
        "ed"
      ],
      [
        "re",
        "member"
      ],
      [
        "mo",
        "st"
      ],
      [
        "guy",
        "s"
      ],
      [
        "every",
        "thing"
      ],
      [
        "i",
        "ous"
      ],
      [
        "be",
        "cause"
      ],
      [
        "a",
        "me"
      ],
      [
        "p",
        "ort"
      ],
      [
        "re",
        "s"
      ],
      [
        "b",
        "it"
      ],
      [
        "i",
        "ke"
      ],
      [
        "r",
        "u"
      ],
      [
        "in",
        "ter"
      ],
      [
        "li",
        "ve"
      ],
      [
        "c",
        "l"
      ],
      [
        "or",
        "d"
      ],
      [
        "g",
        "reat"
      ],
      [
        "i",
        "z"
      ],
      [
        "r",
        "un"
      ],
      [
        "got",
        "ta"
      ],
      [
        "ple",
        "ase"
      ],
      [
        "c",
        "tor"
      ],
      [
        "f",
        "in"
      ],
      [
        "year",
        "s"
      ],
      [
        "c",
        "ra"
      ],
      [
        "m",
        "iss"
      ],
      [
        "ar",
        "y"
      ],
      [
        "le",
        "ave"
      ],
      [
        "E",
        "x"
      ],
      [
        "f",
        "er"
      ],
      [
        "m",
        "ade"
      ],
      [
        "t",
        "en"
      ],
      [
        "an",
        "ge"
      ],
      [
        "b",
        "ro"
      ],
      [
        "p",
        "t"
      ],
      [
        "thr",
        "ough"
      ],
      [
        "s",
        "ho"
      ],
      [
        "en",
        "ough"
      ],
      [
        "pe",
        "ct"
      ],
      [
        "dam",
        "n"
      ],
      [
        "le",
        "ase"
      ],
      [
        "d",
        "re"
      ],
      [
        "R",
        "ight"
      ],
      [
        "talk",
        "ing"
      ],
      [
        "he",
        "ard"
      ],
      [
        "N",
        "e"
      ],
      [
        "r",
        "oom"
      ],
      [
        "an",
        "other"
      ],
      [
        "would",
        "n"
      ],
      [
        "com",
        "ing"
      ],
      [
        "e",
        "k"
      ],
      [
        "me",
        "et"
      ],
      [
        "fuck",
        "ing"
      ],
      [
        "M",
        "o"
      ],
      [
        "want",
        "ed"
      ],
      [
        "ca",
        "me"
      ],
      [
        "your",
        "self"
      ],
      [
        "pl",
        "an"
      ],
      [
        "pl",
        "ay"
      ],
      [
        "Mr",
        "s"
      ],
      [
        "P",
        "lease"
      ],
      [
        "p",
        "ar"
      ],
      [
        "y",
        "a"
      ],
      [
        "po",
        "int"
      ],
      [
        ".",
        "\""
      ],
      [
        "G",
        "et"
      ],
      [
        "J",
        "es"
      ],
      [
        "ou",
        "se"
      ],
      [
        "d",
        "one"
      ],
      [
        "le",
        "ep"
      ],
      [
        "get",
        "ting"
      ],
      [
        "wor",
        "d"
      ],
      [
        "b",
        "re"
      ],
      [
        "R",
        "o"
      ],
      [
        "th",
        "ree"
      ],
      [
        "M",
        "a"
      ],
      [
        "a",
        "ir"
      ],
      [
        "ti",
        "c"
      ],
      [
        "A",
        "ny"
      ],
      [
        "n",
        "er"
      ],
      [
        "H",
        "ar"
      ],
      [
        "s",
        "ha"
      ],
      [
        "A",
        "l"
      ],
      [
        "T",
        "ell"
      ],
      [
        "le",
        "ft"
      ],
      [
        "in",
        "ess"
      ],
      [
        "con",
        "d"
      ],
      [
        "ers",
        "on"
      ],
      [
        "O",
        "f"
      ],
      [
        "us",
        "ed"
      ],
      [
        "look",
        "ing"
      ],
      [
        "D",
        "e"
      ],
      [
        "O",
        "ne"
      ],
      [
        "c",
        "y"
      ],
      [
        "j",
        "o"
      ],
      [
        "l",
        "ess"
      ],
      [
        "mo",
        "ther"
      ],
      [
        "D",
        "ad"
      ],
      [
        "g",
        "g"
      ],
      [
        "p",
        "h"
      ],
      [
        "f",
        "un"
      ],
      [
        "was",
        "n"
      ],
      [
        "pre",
        "t"
      ],
      [
        "mat",
        "ter"
      ],
      [
        "u",
        "ally"
      ],
      [
        "shi",
        "p"
      ],
      [
        "c",
        "er"
      ],
      [
        "n",
        "ice"
      ],
      [
        "we",
        "ek"
      ],
      [
        "pro",
        "ble"
      ],
      [
        "E",
        "very"
      ],
      [
        "m",
        "aybe"
      ],
      [
        "s",
        "m"
      ],
      [
        "cou",
        "n"
      ],
      [
        "i",
        "th"
      ],
      [
        "wor",
        "ld"
      ],
      [
        "say",
        "s"
      ],
      [
        "a",
        "v"
      ],
      [
        "h",
        "ouse"
      ],
      [
        "r",
        "ist"
      ],
      [
        "on",
        "s"
      ],
      [
        "ton",
        "ight"
      ],
      [
        "bus",
        "iness"
      ],
      [
        "h",
        "ur"
      ],
      [
        "p",
        "ay"
      ],
      [
        "h",
        "our"
      ],
      [
        "in",
        "ce"
      ],
      [
        "se",
        "t"
      ],
      [
        "He",
        "ll"
      ],
      [
        "try",
        "ing"
      ],
      [
        "a",
        "w"
      ],
      [
        "i",
        "ld"
      ],
      [
        "th",
        "ank"
      ],
      [
        "ve",
        "s"
      ],
      [
        "stu",
        "ff"
      ],
      [
        "f",
        "ive"
      ],
      [
        "k",
        "new"
      ],
      [
        "de",
        "al"
      ],
      [
        "A",
        "n"
      ],
      [
        "a",
        "u"
      ],
      [
        "al",
        "ready"
      ],
      [
        "sto",
        "p"
      ],
      [
        "T",
        "o"
      ],
      [
        "und",
        "red"
      ],
      [
        "H",
        "ere"
      ],
      [
        "d",
        "es"
      ],
      [
        "m",
        "ay"
      ],
      [
        "wom",
        "an"
      ],
      [
        "s",
        "ide"
      ],
      [
        "ha",
        "ven"
      ],
      [
        "id",
        "ea"
      ],
      [
        "some",
        "one"
      ],
      [
        "mor",
        "ning"
      ],
      [
        "H",
        "ave"
      ],
      [
        "be",
        "ing"
      ],
      [
        "A",
        "r"
      ],
      [
        "B",
        "en"
      ],
      [
        "J",
        "ack"
      ],
      [
        "b",
        "ar"
      ],
      [
        "d",
        "if"
      ],
      [
        "g",
        "er"
      ],
      [
        "h",
        "undred"
      ],
      [
        "d",
        "ie"
      ],
      [
        "li",
        "ght"
      ],
      [
        "ul",
        "t"
      ],
      [
        "Be",
        "cause"
      ],
      [
        "p",
        "erson"
      ],
      [
        "s",
        "it"
      ],
      [
        "es",
        "tion"
      ],
      [
        "se",
        "en"
      ],
      [
        "A",
        "s"
      ],
      [
        "a",
        "pp"
      ],
      [
        "sa",
        "w"
      ],
      [
        "kill",
        "ed"
      ],
      [
        "Thank",
        "s"
      ],
      [
        "C",
        "om"
      ],
      [
        "L",
        "ike"
[...]
